{"<s>":0,"<pad>":1,"</s>":2,"<unk>":3,"!":4,"\"":5,"#":6,"$":7,"%":8,"&":9,"'":10,"(":11,")":12,"*":13,"+":14,",":15,"-":16,".":17,"/":18,"0":19,"1":20,"2":21,"3":22,"4":23,"5":24,"6":25,"7":26,"8":27,"9":28,":":29,";":30,"<":31,"=":32,">":33,"?":34,"@":35,"A":36,"B":37,"C":38,"D":39,"E":40,"F":41,"G":42,"H":43,"I":44,"J":45,"K":46,"L":47,"M":48,"N":49,"O":50,"P":51,"Q":52,"R":53,"S":54,"T":55,"U":56,"V":57,"W":58,"X":59,"Y":60,"Z":61,"[":62,"\\":63,"]":64,"^":65,"_":66,"`":67,"a":68,"b":69,"c":70,"d":71,"e":72,"f":73,"g":74,"h":75,"i":76,"j":77,"k":78,"l":79,"m":80,"n":81,"o":82,"p":83,"q":84,"r":85,"s":86,"t":87,"u":88,"v":89,"w":90,"x":91,"y":92,"z":93,"{":94,"|":95,"}":96,"~":97,"¡":98,"¢":99,"£":100,"¤":101,"¥":102,"¦":103,"§":104,"¨":105,"©":106,"ª":107,"«":108,"¬":109,"®":110,"¯":111,"°":112,"±":113,"²":114,"³":115,"´":116,"µ":117,"¶":118,"·":119,"¸":120,"¹":121,"º":122,"»":123,"¼":124,"½":125,"¾":126,"¿":127,"À":128,"Á":129,"Â":130,"Ã":131,"Ä":132,"Å":133,"Æ":134,"Ç":135,"È":136,"É":137,"Ê":138,"Ë":139,"Ì":140,"Í":141,"Î":142,"Ï":143,"Ð":144,"Ñ":145,"Ò":146,"Ó":147,"Ô":148,"Õ":149,"Ö":150,"×":151,"Ø":152,"Ù":153,"Ú":154,"Û":155,"Ü":156,"Ý":157,"Þ":158,"ß":159,"à":160,"á":161,"â":162,"ã":163,"ä":164,"å":165,"æ":166,"ç":167,"è":168,"é":169,"ê":170,"ë":171,"ì":172,"í":173,"î":174,"ï":175,"ð":176,"ñ":177,"ò":178,"ó":179,"ô":180,"õ":181,"ö":182,"÷":183,"ø":184,"ù":185,"ú":186,"û":187,"ü":188,"ý":189,"þ":190,"ÿ":191,"Ā":192,"ā":193,"Ă":194,"ă":195,"Ą":196,"ą":197,"Ć":198,"ć":199,"Ĉ":200,"ĉ":201,"Ċ":202,"ċ":203,"Č":204,"č":205,"Ď":206,"ď":207,"Đ":208,"đ":209,"Ē":210,"ē":211,"Ĕ":212,"ĕ":213,"Ė":214,"ė":215,"Ę":216,"ę":217,"Ě":218,"ě":219,"Ĝ":220,"ĝ":221,"Ğ":222,"ğ":223,"Ġ":224,"ġ":225,"Ģ":226,"ģ":227,"Ĥ":228,"ĥ":229,"Ħ":230,"ħ":231,"Ĩ":232,"ĩ":233,"Ī":234,"ī":235,"Ĭ":236,"ĭ":237,"Į":238,"į":239,"İ":240,"ı":241,"Ĳ":242,"ĳ":243,"Ĵ":244,"ĵ":245,"Ķ":246,"ķ":247,"ĸ":248,"Ĺ":249,"ĺ":250,"Ļ":251,"ļ":252,"Ľ":253,"ľ":254,"Ŀ":255,"ŀ":256,"Ł":257,"ł":258,"Ń":259,"Ġt":260,"Ġa":261,"in":262,"re":263,"he":264,"on":265,"ti":266,"en":267,"Ġo":268,"Ġs":269,"Ġthe":270,"er":271,"ed":272,"Ġc":273,"al":274,"Ġp":275,"Ġin":276,"Ġw":277,"at":278,"es":279,"Ġan":280,"Ġof":281,"or":282,"an":283,"is":284,"it":285,"tion":286,"ro":287,"Ġf":288,"Ġm":289,"Ġand":290,"Ġd":291,"as":292,"Ġb":293,"ic":294,"ar":295,"ing":296,"Ġre":297,"ent":298,"le":299,"Ġe":300,"Ġ(":301,"Ġto":302,"el":303,"ation":304,"ec":305,"us":306,"om":307,"ul":308,"Ġth":309,"ac":310,"Ġh":311,"Ġn":312,"ol":313,"et":314,"ere":315,"os":316,"Ġl":317,"ur":318,"ig":319,"id":320,"im":321,"ith":322,"ly":323,"Ġwith":324,"ve":325,"Ġg":326,"un":327,"Ġst":328,"Ġfor":329,"ĠT":330,"ot":331,"Ġcon":332,"ce":333,"ter":334,"res":335,"Ġpro":336,"il":337,"ow":338,"if":339,"Ġas":340,"ati":341,"ut":342,"Ġwas":343,"âĢ":344,"Ġis":345,"am":346,"Ġv":347,"uc":348,"ated":349,"Ġ1":350,"Ġex":351,"Ġwere":352,"um":353,"od":354,"ts":355,"ra":356,"st":357,"Ġthat":358,"ĠC":359,"Ġal":360,"oc":361,"ĠA":362,"Ġon":363,"ity":364,"Ġbe":365,"ab":366,"si":367,"tic":368,"Ġ2":369,"ell":370,"ment":371,"ud":372,"ate":373,"ver":374,"op":375,"ĠS":376,"ri":377,").":378,"Ġcom":379,"ir":380,"ted":381,"Ġby":382,"Ġres":383,"ag":384,"ure":385,"Ġac":386,"ĠI":387,"em":388,"qu":389,"up":390,"rom":391,"her":392,"og":393,"ĠP":394,"ant":395,"se":396,"Ġor":397,"Ġr":398,"th":399,"ay":400,"ain":401,"Ġus":402,"ĠThe":403,"Ġare":404,"Ġat":405,"ents":406,"ical":407,"vel":408,"ĠM":409,"di":410,"pl":411,"Ġde":412,"ff":413,"Ġfrom":414,"ine":415,"ad":416,"00":417,"Ġcell":418,"Ġch":419,"Ġ[":420,"Ġcomp":421,"ore":422,"Ġinc":423,"ase":424,"ess":425,"Ġim":426,"ĠH":427,"pec":428,"Ġwh":429,"und":430,"Ġdis":431,"The":432,"Ġse":433,"Ġsh":434,"Ġstud":435,"ub":436,"ran":437,"ĠF":438,"igh":439,"ign":440,"ph":441,"ies":442,"sion":443,"Ġcont":444,"Ġper":445,"ug":446,"),":447,"orm":448,"iz":449,"Ġad":450,"por":451,"duc":452,"Ġpre":453,"ific":454,"Ġexp":455,"Ġle":456,"ĠD":457,"Ġpati":458,"Ġgen":459,"te":460,"ous":461,"ations":462,"Ġen":463,"ĠB":464,"Ġ3":465,"ys":466,"ers":467,"ence":468,"Ġne":469,"Ġhe":470,"are":471,"tive":472,"ĠR":473,"yp":474,"est":475,"ĠN":476,"iff":477,"ĠE":478,"Ġwe":479,"eren":480,"Ġnot":481,"ion":482,"ch":483,"Ġass":484,"tiv":485,"Ġdiff":486,"Ġco":487,"ge":488,"ist":489,"âĢī":490,"Ġthis":491,"ip":492,"ther":493,"ich":494,"Âł":495,"Ġpatients":496,"Ġsign":497,"ved":498,"lec":499,"Ġcan":500,"act":501,"Ġgro":502,"ap":503,"ffec":504,"vi":505,"able":506,"Ġint":507,"Ġha":508,"Ġcells":509,"tions":510,"ary":511,"Ġinf":512,"Ġdi":513,"].":514,"ib":515,"ĠG":516,"ding":517,"Ġcl":518,"Ġap":519,"Ġpar":520,"ally":521,"Ġbet":522,"age":523,"ased":524,"ance":525,"Ġshow":526,"we":527,"ost":528,"Ġdifferen":529,"Ġwhich":530,"ĠIn":531,"enti":532,"Ġsy":533,"Ġstudy":534,"Ġpl":535,"rans":536,"Ġit":537,"and":538,"ĠL":539,"ors":540,"Ġ0":541,"Ġob":542,"ular":543,"olog":544,"Ġ5":545,"ia":546,"Ġhave":547,"Ġinter":548,"ast":549,"Ġ4":550,"Ġab":551,"Ġmet":552,"reat":553,"Ġanal":554,"ial":555,"pro":556,"ear":557,"Ġmod":558,"ative":559,"vid":560,"ong":561,"ween":562,"Ġme":563,"ue":564,"ression":565,"ep":566,"ari":567,"Ġk":568,"Ġpres":569,"Ġbetween":570,"ple":571,"low":572,"Ġsub":573,"Ġreg":574,"NA":575,"val":576,"Ġeffec":577,"Ġrec":578,"Ġph":579,"Ġtrans":580,"Ġresul":581,"Ġsignific":582,"ach":583,"Ġincre":584,"ĠW":585,"01":586,"Ġgroup":587,"rol":588,"Ġwhe":589,"tr":590,"enc":591,"ose":592,"yl":593,"all":594,"Ġind":595,"Ġdet":596,"ata":597,"form":598,"ight":599,"Ġusing":600,"so":601,"ĠO":602,"ates":603,"Ġspec":604,"end":605,"ren":606,"ied":607,"Ġsc":608,"Ġsignificant":609,"unc":610,"pon":611,"ome":612,"ak":613,"Ġcons":614,"tein":615,"ound":616,"rib":617,"erm":618,"âĢĵ":619,"ill":620,"ven":621,"pt":622,"fter":623,"oci":624,"tim":625,"Ġalso":626,"uld":627,"Ġused":628,"ory":629,"Ġactiv":630,"Ġsur":631,"port":632,"Ġrel":633,"ath":634,"ugh":635,"Ġmic":636,"lud":637,"Ġsam":638,"Ġet":639,"Ġlevel":640,"Ġbeen":641,"str":642,"our":643,"Ġthan":644,"Ġcor":645,"Ġhas":646,"Ġthese":647,"Ġun":648,"Ġam":649,"Ġanalys":650,"ree":651,"iti":652,"Ġdata":653,"ility":654,"In":655,"Ġy":656,"one":657,"Ġpos":658,"wo":659,"Ġprotein":660,"oth":661,"reatment":662,"per":663,"ress":664,"ens":665,"ual":666,"ros":667,"Ġall":668,"Ġanti":669,"ulation":670,"Ġstr":671,"Ġinv":672,"Ġhigh":673,"Ġ6":674,"ely":675,"his":676,"tional":677,"ases":678,"ass":679,"Ġund":680,"Ġtim":681,"Ġvari":682,"vely":683,"Ġmay":684,"ide":685,"Ġacc":686,"tal":687,"ech":688,"Ġno":689,"Ġafter":690,"Ġother":691,"ser":692,"out":693,"Ġqu":694,"ared":695,"ating":696,"Ġtheir":697,"ĠU":698,"Ġtreatment":699,"Ġmore":700,"Ġro":701,"ym":702,"ang":703,"ting":704,".,":705,"Ġcol":706,"rap":707,"Ġcontrol":708,"rain":709,"Ġtwo":710,"entr":711,"ection":712,"Ġlow":713,"Fig":714,"Ġag":715,"ever":716,"Ġinclud":717,"ater":718,"Ġunder":719,"Ġbut":720,"ox":721,"Ġdes":722,"duced":723,"tain":724,"uch":725,"Ġassoci":726,"aus":727,"ard":728,"Ġ=":729,"Ġexpression":730,"Ġsp":731,"Ġconc":732,"ood":733,"ew":734,"uring":735,"Ġval":736,"ures":737,"Ġresults":738,"ile":739,"Ġmodel":740,"mun":741,"Ġbl":742,"Ġmed":743,"Ġfol":744,"Ġrespon":745,"lu":746,"Ġsup":747,"Ġdec":748,"Ġar":749,"ber":750,"anc":751,"ered":752,"ized":753,"ined":754,"velop":755,"stem":756,"Ġpr":757,"yt":758,"Ġbi":759,"Ġanalysis":760,"Ġmo":761,"Ġcar":762,"ace":763,"Ġout":764,"Ġmeth":765,"acter":766,"red":767,"Ġmeas":768,"Ġperform":769,"Ġboth":770,"Ġstudies":771,"Ġ201":772,"ues":773,"ture":774,"Ġ7":775,"der":776,"Ġfact":777,"hib":778,"Ġman":779,"ants":780,"Ġobser":781,"Ġfunc":782,"Ġsim":783,"arg":784,"Ġdevelop":785,"Ġover":786,"Ġdifferent":787,"cess":788,"ten":789,"Ġ10":790,"alth":791,"ogen":792,"owever":793,"ite":794,"Ġid":795,"Ġgene":796,"Ġtime":797,"Ġpartic":798,"ĠÎ":799,"Ġ200":800,"ect":801,"gen":802,"Ġfollow":803,"Ġnum":804,"entif":805,"Ġindic":806,"Ġhad":807,"ail":808,"ne":809,"Ġform":810,"Ġ9":811,"Ġexper":812,"ution":813,"Ġli":814,"rec":815,"ays":816,"ism":817,"Ġone":818,"10":819,"osis":820,"Ġpresent":821,"Ġdise":822,"ond":823,"Ġeach":824,"de":825,"inal":826,"ype":827,"ob":828,"Ġsystem":829,"les":830,"hed":831,"ological":832,"als":833,"Ġfound":834,"Ġser":835,"ĠK":836,"plic":837,"inding":838,"ĠV":839,"ork":840,"Ġduring":841,"ry":842,"Ġlevels":843,"ble":844,"Ġsug":845,"atic":846,"ack":847,"Ġnon":848,"rel":849,"hem":850,"Ġcompared":851,"Ġrep":852,"Ġsuch":853,"Ġclin":854,"Ġcomple":855,"Ġappro":856,"Ġhig":857,"cer":858,"ici":859,"Ġinto":860,"Ġmon":861,"ization":862,"tern":863,"Ġsugg":864,"hen":865,"Ġrepor":866,"Ġidentif":867,"Ġem":868,"Ġ8":869,"Ġonly":870,"Ġthere":871,"Ġpath":872,"Ġmethod":873,"ected":874,"Ġour":875,"ild":876,"ex":877,"Ġuse":878,"ric":879,"yc":880,"ition":881,"action":882,"Ġmeasure":883,"ons":884,"Ġup":885,"ould":886,"hibit":887,"Ġhealth":888,"fore":889,"ments":890,"dition":891,"Ġactivity":892,"Ġassociated":893,"ature":894,"mon":895,"âĢĻ":896,"tical":897,"ium":898,"Ġdist":899,"Ġincreased":900,"tively":901,"duction":902,"ces":903,"Ġhyp":904,"Ġgener":905,"isk":906,"ability":907,"own":908,"iss":909,"Ġeffect":910,"ram":911,"Ġrem":912,"Ġits":913,"Ġmost":914,"Ġexam":915,"cc":916,"urther":917,"Ġwell":918,"ears":919,"Ġpol":920,"ĠThis":921,"ark":922,"ulated":923,"ix":924,"Ġshowed":925,"atory":926,"Ġnumber":927,"quenc":928,"Ġobserved":929,"agn":930,"Ġsignificantly":931,"Ġmin":932,"Ġdep":933,"Ġclinical":934,"Ġend":935,"ord":936,"Ġrece":937,"Ġprovid":938,"irst":939,"vious":940,"Ġpot":941,"Ġdeterm":942,"Ġdem":943,"Ġra":944,"Ġgl":945,"ll":946,"Ġop":947,"ines":948,"uman":949,"Ġdef":950,"Ġrespec":951,"Ġsec":952,"Ġdisease":953,"Ġhigher":954,"Ġtum":955,"Ġpo":956,"ange":957,"ke":958,"We":959,"Ġcould":960,"ination":961,"ale":962,"rough":963,"ilar":964,"ough":965,"Ġwhen":966,"ential":967,"ON":968,"iv":969,"hes":970,"Ġ19":971,"Ġconcentr":972,"Ġshown":973,"itive":974,"Ġloc":975,"Ġsm":976,"ult":977,"urren":978,"Ġtest":979,"Ġprocess":980,"Ġreported":981,"],":982,"âĪ":983,"12":984,"ormal":985,"Ġperformed":986,"Ġconf":987,"ax":988,"Ġrisk":989,"Ġeffects":990,"Ġthree":991,"ause":992,"Ġimmun":993,"Ġsyn":994,"emb":995,"Ġcancer":996,"Ġwho":997,"RNA":998,"Ġprog":999,"tig":1000,"Ġes":1001,"oid":1002,"ĠFig":1003,"Ġpred":1004,"onstr":1005,"Ġchar":1006,"Ġexperim":1007,"ology":1008,"ize":1009,"valu":1010,"Ġimport":1011,"min":1012,"raph":1013,"ery":1014,"Ġassess":1015,"Ġstruc":1016,"ently":1017,"oun":1018,"Ġmean":1019,"Ġwhere":1020,"Ġdesc":1021,"ĠâĢ":1022,"ions":1023,"Ġfirst":1024,"par":1025,"Ġhuman":1026,"pos":1027,"Ġpop":1028,"Ġcal":1029,"ities":1030,"old":1031,"qui":1032,"erg":1033,"ores":1034,"yd":1035,"tit":1036,"Ġgenes":1037,"Ġmul":1038,"Ġgroups":1039,"ok":1040,"av":1041,"Ġsampl":1042,"Ġkn":1043,"Ġref":1044,"ages":1045,"tained":1046,"Ġevalu":1047,"ron":1048,"Ġprevious":1049,"Ġdecre":1050,"Ġthrough":1051,"lic":1052,"med":1053,"echan":1054,"Ġmut":1055,"Ġocc":1056,"Ġmicro":1057,"Ġage":1058,"ft":1059,"Ġtr":1060,"ption":1061,"Ġindi":1062,"amm":1063,"ute":1064,"Ġgrow":1065,"CT":1066,"Ġmice":1067,"reated":1068,"Ġtiss":1069,"Ġtherap":1070,"ort":1071,"led":1072,"estig":1073,"Ġmechan":1074,"ive":1075,"ock":1076,"sive":1077,"Ġprim":1078,"ody":1079,"Ġrespectively":1080,"arget":1081,"Ġacid":1082,"11":1083,"Ġcharacter":1084,"Ġins":1085,"Ġrate":1086,"ise":1087,"Ġsol":1088,"ucle":1089,"ES":1090,"Ġso":1091,"Ġpatient":1092,"Ġinvestig":1093,"Ġinhibit":1094,"ĠJ":1095,"Ġwithin":1096,"Ġchang":1097,"Ġthose":1098,"Ġfunction":1099,"Ġresponse":1100,"Ġdiagn":1101,"Ġsimilar":1102,"endent":1103,"Ġdisc":1104,"Ġimpro":1105,"Ġthey":1106,"Â±":1107,"pit":1108,"Ġdemonstr":1109,"ov":1110,"Ġtotal":1111,"ural":1112,"%)":1113,"vidual":1114,"Ġconsid":1115,"50":1116,"cri":1117,"jec":1118,"Â°":1119,"Ġdo":1120,"Ġ12":1121,"Ġmain":1122,"Ġdescrib":1123,"ĠWe":1124,"âĪĴ":1125,"Ġbec":1126,"Figure":1127,"ind":1128,"Ġparticip":1129,"asm":1130,"oph":1131,"usion":1132,"CR":1133,"Ġaut":1134,"Ġdr":1135,"its":1136,"Ġfe":1137,"Ġimp":1138,"Ġpost":1139,"Ġincluding":1140,"ĠHowever":1141,"atis":1142,"Ġinvol":1143,"gan":1144,"Ġspecific":1145,"view":1146,"Ġyears":1147,"Ġincrease":1148,"Ġset":1149,"reg":1150,"zed":1151,"rop":1152,"Ġsome":1153,"SA":1154,"Ġfactors":1155,"ational":1156,"echn":1157,"Ġtarget":1158,"Ġpredic":1159,"Ġselec":1160,"âĢĲ":1161,"Ġindividual":1162,"Ġcalc":1163,"05":1164,"ograph":1165,"tics":1166,"rect":1167,"over":1168,"Ġimportant":1169,"Ġapp":1170,"This":1171,"ene":1172,"Ġev":1173,"ested":1174,"Ġcompar":1175,"Ġcases":1176,"amet":1177,"Ġsamples":1178,"Ġelec":1179,"int":1180,"osph":1181,"omes":1182,"ie":1183,"Ġrepres":1184,"Ġmulti":1185,"CA":1186,"Ġdevelopment":1187,"13":1188,"Ġbased":1189,"ffici":1190,"ha":1191,"roph":1192,"urrent":1193,"plement":1194,"vers":1195,"Ġcorrel":1196,"Ġantib":1197,"Ġlower":1198,"Ġmor":1199,"ek":1200,"iqu":1201,"Ġinform":1202,"ross":1203,"ness":1204,"aining":1205,"Ġrole":1206,"sible":1207,"CL":1208,"ĠCD":1209,"20":1210,"15":1211,"Ġlim":1212,"Ġwill":1213,"Ġbas":1214,"Ġwork":1215,"ensi":1216,"ving":1217,"Ġcyt":1218,"nal":1219,"ĠDNA":1220,"iod":1221,"Ġnormal":1222,"Ġtri":1223,"Ġamong":1224,"ust":1225,"Ġlong":1226,"ified":1227,"Ġtem":1228,"ental":1229,"14":1230,"ice":1231,"ived":1232,"Ġmolec":1233,"Ġdue":1234,"ful":1235,"yn":1236,"Ġchanges":1237,"Ġdid":1238,"Ġ<":1239,"Ġfre":1240,"arly":1241,"eng":1242,"ai":1243,"Ġnew":1244,"Ġsame":1245,"Ġchild":1246,"cop":1247,"iel":1248,"Ġblood":1249,"tivity":1250,"Ġpotential":1251,"Ġproteins":1252,"GF":1253,"ann":1254,"ited":1255,"til":1256,"Ġsuggest":1257,"Ġj":1258,"Ġvalues":1259,"Ġrequi":1260,"ration":1261,"Ġ20":1262,"ian":1263,"Ġrat":1264,"Ġcare":1265,"Ġfinding":1266,"Ġwhile":1267,"ET":1268,"inc":1269,"hel":1270,"Ġmechanism":1271,"ressed":1272,"Ġaddition":1273,"âĢĿ":1274,"ĠĠ":1275,"ependent":1276,"fer":1277,"Ġav":1278,"Ġneed":1279,"Ġobtained":1280,"Ġidentified":1281,"ties":1282,"Ġprot":1283,"Ġsmall":1284,"Ġdrug":1285,"earch":1286,"AC":1287,"Ġcomb":1288,"omen":1289,"ically":1290,"16":1291,"DS":1292,"ink":1293,"Ġtumor":1294,"spec":1295,"ency":1296,"Ġanaly":1297,"Ġfurther":1298,"Ġspecies":1299,"Ġmemb":1300,"ately":1301,"Ġcomplex":1302,"'s":1303,"ateg":1304,"ield":1305,"ake":1306,"oma":1307,"Ġcondi":1308,"though":1309,"Ġgrowth":1310,"19":1311,"lis":1312,"Ġexpl":1313,"art":1314,"Ġthen":1315,"Ġcap":1316,"iter":1317,"Ġprom":1318,"ane":1319,"asc":1320,"ites":1321,"ĠFor":1322,"Ġextr":1323,"TS":1324,"Ġcoun":1325,"ording":1326,"Ġdifferences":1327,"Ġox":1328,"18":1329,"SI":1330,"arge":1331,"Ġsever":1332,"Ġpopulation":1333,"Ġshould":1334,"Ġtechn":1335,"Ġinj":1336,"ths":1337,"Ġvis":1338,"Ġsecond":1339,"air":1340,"Ġconditions":1341,"Ġaffec":1342,"Ġvir":1343,"ĠSt":1344,"ins":1345,"ingle":1346,"Cs":1347,"aj":1348,"ĠâĢľ":1349,"Ġline":1350,"Ġwithout":1351,"AT":1352,"ditional":1353,"face":1354,"ypes":1355,"Ġclass":1356,"Ġsignal":1357,"eth":1358,"Ġexc":1359,"Ġpat":1360,"Ġmark":1361,"iron":1362,"Ġless":1363,"Ġperiod":1364,"ality":1365,"Ġlead":1366,"ses":1367,"IV":1368,"abol":1369,"Ġstim":1370,"17":1371,"ves":1372,"Ġevid":1373,"Ġsurg":1374,"Ġoutc":1375,"25":1376,"Ġany":1377,"Ġflu":1378,"Ġpe":1379,"Ġtype":1380,"Ġrecept":1381,"Ġpathw":1382,"Ġestim":1383,"Ġsym":1384,"ĠAs":1385,"Ġnucle":1386,"Ġdescribed":1387,"Ġmat":1388,"Ġstand":1389,"li":1390,"Ġfollowing":1391,"Ġiniti":1392,"Ġabout":1393,"Ġsingle":1394,"Ġcase":1395,"lamm":1396,"II":1397,"Ġcommon":1398,"ajor":1399,"Ġcontr":1400,"Ġpresence":1401,"Ġabs":1402,"Ġrepresent":1403,"ĠTh":1404,"uce":1405,"ptom":1406,"Ġoccur":1407,"Ġincluded":1408,"Ġ30":1409,"Ġtissue":1410,"Ġinformation":1411,"sy":1412,"ains":1413,"Ġhist":1414,"Ġtranscri":1415,"Ġel":1416,"ydro":1417,"havi":1418,"Ġreve":1419,"Ġexpos":1420,"Ġext":1421,"cent":1422,"Ġvol":1423,"Ġorgan":1424,"Ġmeasured":1425,"Ġrele":1426,"ĠThese":1427,"âĢī=":1428,"Ġmajor":1429,"Ġ15":1430,"con":1431,"Ġpositive":1432,"ensity":1433,"Ġtra":1434,"hip":1435,"anti":1436,"Ġfactor":1437,"ained":1438,"Ġcurrent":1439,"Ġcr":1440,"ĠCh":1441,"ication":1442,"000":1443,"Ġdel":1444,"Ġsize":1445,"Ġcollec":1446,"Ġsample":1447,"ogn":1448,"ĠAl":1449,"Ġstrain":1450,"ests":1451,"Ġreduced":1452,"Ġcaus":1453,"Ġchem":1454,"Ġbehavi":1455,"AP":1456,"Ġrelated":1457,"Ġgra":1458,"ither":1459,"Ġret":1460,"ced":1461,"Ġresearch":1462,"Ġwould":1463,"Ġmetabol":1464,"to":1465,"ms":1466,"Ġgreat":1467,"ung":1468,"Ġdom":1469,"Ġdistrib":1470,"Ġcle":1471,"ior":1472,"Ġconcentration":1473,"Ġneg":1474,"erc":1475,"Ġneu":1476,"Ġfindings":1477,"Ġinflu":1478,"itro":1479,"uted":1480,"reen":1481,"eration":1482,"ospit":1483,"ick":1484,"Ġisol":1485,"Ġfib":1486,"ification":1487,"Ġphosph":1488,"usc":1489,"Ġreveal":1490,"Ġrati":1491,"Ġbecause":1492,"Ġsurvi":1493,"Ġsequenc":1494,"actions":1495,"30":1496,"Ġtreated":1497,"Ġdifferenti":1498,"ĠIt":1499,"Ġdays":1500,"Ġlarge":1501,"ans":1502,"Ġfr":1503,"omic":1504,"To":1505,"verage":1506,"Ġradi":1507,"Ġreview":1508,"io":1509,"ĠThere":1510,"ĠAn":1511,"Ġregion":1512,"Ġterm":1513,"ade":1514,"Ġpattern":1515,"ator":1516,"onal":1517,"Ġfl":1518,"âĢĬ":1519,"HO":1520,"Ġstatis":1521,"Ġmal":1522,"zym":1523,"Ġprob":1524,"ty":1525,"Ġagain":1526,"omet":1527,"Ġtherapy":1528,"Ġinfection":1529,"Ġprimary":1530,"ĠFigure":1531,"Ġ24":1532,"Ġchildren":1533,"Ġif":1534,"MS":1535,"Ġanim":1536,"Ġstructure":1537,"MP":1538,"Ġwomen":1539,"ocyt":1540,"Ġevidence":1541,"Ġparamet":1542,"struc":1543,"vere":1544,"ulations":1545,"quence":1546,"Ġcul":1547,"Ġvalue":1548,"Ġavail":1549,"Ġsurface":1550,"Ġfour":1551,"viron":1552,"Ġcyc":1553,"ety":1554,"Ġmembran":1555,"och":1556,"Ġdeg":1557,"Ġconduc":1558,"Ġseveral":1559,"of":1560,"based":1561,"Ġdifference":1562,"Ġphen":1563,"hesis":1564,"ĠIL":1565,"atal":1566,"Ġele":1567,"Ġbefore":1568,"Ġlik":1569,"Ġdemonstrated":1570,"acy":1571,"Ġweek":1572,"Ġproduc":1573,"jects":1574,"cept":1575,"Ġpur":1576,"Ġep":1577,"Ġstress":1578,"Ġstandard":1579,"Ġparticipants":1580,"Ġatt":1581,"Ġfam":1582,"CC":1583,"ission":1584,"Ġbinding":1585,"Ġ100":1586,"Ġol":1587,"Ġpreviously":1588,"ward":1589,"Ġplasm":1590,"Ġcontrib":1591,"Ġbre":1592,"Ġ50":1593,"ascular":1594,"br":1595,"respon":1596,"Ġprof":1597,"23":1598,"Ġactivation":1599,"Ġtemper":1600,"ily":1601,"Ġadd":1602,"Ġbrain":1603,"medi":1604,"Ġdesign":1605,"co":1606,"AS":1607,"Ġwater":1608,"Ġneur":1609,"ife":1610,"Ġlocal":1611,"asing":1612,"ouse":1613,"Ġwhether":1614,"Ġphys":1615,"24":1616,"Ġsensi":1617,"tis":1618,"other":1619,"xim":1620,"ĠRNA":1621,"Ġred":1622,"Ġdetermined":1623,"ĠÎ¼":1624,"ove":1625,"aging":1626,"cl":1627,"%,":1628,"arm":1629,"Ġconsidered":1630,"Ġdirect":1631,"af":1632,"Ġfem":1633,"Ġimprove":1634,"Ġenh":1635,"elf":1636,"Ġsymptom":1637,"Ġpub":1638,"Ġmodels":1639,"Ġlab":1640,"RI":1641,"ÃĹ":1642,"iven":1643,"Ġconfir":1644,"Ġpossible":1645,"line":1646,"Ġver":1647,"Ġrange":1648,"oper":1649,"Ġmany":1650,"ning":1651,"Ġresist":1652,"round":1653,"Ġresult":1654,"Ġeither":1655,"Ġstruct":1656,"atively":1657,"Ġcardi":1658,"Ġmater":1659,"Ġearly":1660,"aren":1661,"22":1662,"Ġpromot":1663,"ĠQ":1664,"vant":1665,"row":1666,"PA":1667,"Ġchange":1668,"oss":1669,"me":1670,"Ġcharacteris":1671,"Ġknown":1672,"Ġrelations":1673,"ince":1674,"Ġdecreased":1675,"ospital":1676,"ish":1677,"othe":1678,"Ġequ":1679,"Ġ14":1680,"âĢī0":1681,"Ġvi":1682,"ĠTable":1683,"tically":1684,"Ġallow":1685,"Ġconsist":1686,"ling":1687,"PS":1688,"verse":1689,"Ġmethods":1690,"Ġinterven":1691,"Ġstrong":1692,"ics":1693,"erv":1694,"Î²":1695,"Ġ199":1696,"Ġapproach":1697,"Ġpart":1698,"roscop":1699,"Ġfunctional":1700,"idence":1701,"Ġ+":1702,"Ġmultiple":1703,"Ġagainst":1704,"Ġmy":1705,"work":1706,"irc":1707,"Ġconcentrations":1708,"Ġbacter":1709,"ually":1710,"the":1711,"Ġproper":1712,"els":1713,"Ġmusc":1714,"ylation":1715,"Ġenviron":1716,"001":1717,"sure":1718,"RES":1719,"Ġrevealed":1720,"ules":1721,"UL":1722,"tro":1723,"ste":1724,"Ġsu":1725,"Ġenzym":1726,"Ġ16":1727,"SION":1728,"Ġparticular":1729,"Ġdetected":1730,"ĠX":1731,"ount":1732,"Ġinvolved":1733,"Ġorder":1734,"Ġanalyzed":1735,"Ġest":1736,"andom":1737,"Ġfrequenc":1738,"mit":1739,"Ġmight":1740,"Ġ18":1741,"21":1742,"Ġrelationship":1743,"ĠUn":1744,"CON":1745,"lished":1746,"erest":1747,"Ġmonths":1748,"minist":1749,"ored":1750,"ĠZ":1751,"err":1752,"Ġinflamm":1753,"Ġprol":1754,"Ġregul":1755,"ae":1756,"Ġsurvival":1757,"ĠCI":1758,"Ġed":1759,"omy":1760,"Ġhyper":1761,"Ġavailable":1762,"term":1763,"Ġmg":1764,"Ġsus":1765,"Ġlip":1766,"Ġnet":1767,"epti":1768,"CLU":1769,"Ġvs":1770,"Ġsupport":1771,"ables":1772,"eu":1773,"Ġmi":1774,"Ġrates":1775,"CLUSION":1776,"Ġnec":1777,"Ġculture":1778,"Ġserum":1779,"Ġphase":1780,"Ġratio":1781,"omp":1782,"sequ":1783,"Ġpers":1784,"Ġcompon":1785,"Ġvery":1786,"Ġaccording":1787,"Ġindicated":1788,"Ġ13":1789,"Ġproced":1790,"Ġbel":1791,"27":1792,"Ġchrom":1793,"induced":1794,"Ġlo":1795,"Ġprovide":1796,"Ġlikely":1797,"Ġdiagnosis":1798,"Ġsequence":1799,"Ġfil":1800,"ND":1801,"Ġexpressed":1802,"Table":1803,"Ġbeing":1804,"Ġweight":1805,"CONCLUSION":1806,"ĠÂ±":1807,"inf":1808,"Ġresid":1809,"Ġexperiments":1810,"Ġday":1811,"erence":1812,"atus":1813,"Ġcommun":1814,"Ġeff":1815,"40":1816,"Ġunderst":1817,"CD":1818,"Ġarea":1819,"Ġvarious":1820,"Ġu":1821,"Ġrandom":1822,"Ġdeveloped":1823,"ardi":1824,"sc":1825,"ysis":1826,"26":1827,"ised":1828,"Ġhem":1829,"Ġproduction":1830,"Ġfac":1831,"Ġsuc":1832,"Ġ95":1833,"amin":1834,"OS":1835,"ULTS":1836,"Ġtechniqu":1837,"Ġdiagnos":1838,"Ġ25":1839,"plications":1840,"ull":1841,"ision":1842,"Ġdose":1843,"Ġnegative":1844,"fficient":1845,"Ġpresented":1846,"Ġpri":1847,"uration":1848,"ĠTo":1849,"cin":1850,"Ġreceptor":1851,"Ġrecom":1852,"Ġtemperature":1853,"ulin":1854,"Ġquality":1855,"anced":1856,"esis":1857,"Î±":1858,"ended":1859,"Cl":1860,"Ps":1861,"Ġformation":1862,"Ġprac":1863,"Ġmen":1864,"Ġques":1865,"otype":1866,"ength":1867,"ellular":1868,"Ġsubjects":1869,"Ġanalyses":1870,"related":1871,"olution":1872,"ymph":1873,"plied":1874,"Ġbody":1875,"28":1876,"plication":1877,"Ġ-":1878,"Ġz":1879,"Ġgeneral":1880,"Ġmembrane":1881,"29":1882,"specific":1883,"atures":1884,"Ġmolecular":1885,"Ġaverage":1886,"Ġadditional":1887,"RESULTS":1888,"Ġdetermine":1889,"ison":1890,"vent":1891,"ults":1892,"teg":1893,"Ġcontrast":1894,"ETHO":1895,"Ġreport":1896,"Ġcirc":1897,"ably":1898,"ters":1899,"Ġadj":1900,"Ġpain":1901,"ume":1902,"Ġinduced":1903,"Ġdat":1904,"Ġidentify":1905,"Ġprogram":1906,"Ġflow":1907,"Ġcorrespon":1908,"sych":1909,"Ġloss":1910,"Ġrelative":1911,"Ġassociation":1912,"Ġadminist":1913,"ists":1914,"BS":1915,"Ġcalculated":1916,"Ġenvironment":1917,"Ġfoc":1918,"ocytes":1919,"Ġdistribution":1920,"Ġsk":1921,"Ġexperi":1922,"ner":1923,"bility":1924,"ule":1925,"Ġparameters":1926,"Ġresponses":1927,"Ġfollowed":1928,"Ġleast":1929,"Ġmax":1930,"RP":1931,"ĠY":1932,"RT":1933,"Ġnetwork":1934,"Ġsites":1935,"ogene":1936,"These":1937,"Ġlarg":1938,"Ġwhereas":1939,"Ġregions":1940,"Ġreduction":1941,"Ġstrateg":1942,"eline":1943,"Ġconducted":1944,"Ġexposure":1945,"Ġextrac":1946,");":1947,"Ġgiven":1948,"Ġcontin":1949,"Ġindividuals":1950,"opl":1951,"ds":1952,"ronic":1953,"Al":1954,"Ġthem":1955,"Ġvia":1956,"Ġhowever":1957,"EM":1958,"Ġlymph":1959,"As":1960,"Ġincub":1961,"Ġperformance":1962,"ĠSc":1963,"Ġintr":1964,"odies":1965,"Ġgu":1966,"very":1967,"ode":1968,"Ġenc":1969,"Ġgreater":1970,"Ġi":1971,"Ġsite":1972,"Ġder":1973,"imum":1974,"ergy":1975,"Ġrequired":1976,"Ġhydro":1977,"Ġmix":1978,"Ġstate":1979,"ides":1980,"Ġacross":1981,"ography":1982,"aneous":1983,"Ġpolym":1984,"Ġhel":1985,"posed":1986,"more":1987,"roup":1988,"Ġeven":1989,"Ġgenetic":1990,"Ġliver":1991,"Ġdown":1992,"app":1993,"Ġles":1994,"Ġfield":1995,"Ġsymptoms":1996,"Ġeffective":1997,"ETHODS":1998,"Ġincreasing":1999,"Ġmass":2000,"Ġsurgery":2001,"Ġhom":2002,"Ġevaluated":2003,"ours":2004,"Ġmechanisms":2005,"Ġcompound":2006,"Ġlife":2007,"Ġsti":2008,"Ġsepar":2009,"cence":2010,"Ġassay":2011,"ĠAll":2012,"Ġresistance":2013,"RO":2014,"Ġindicate":2015,"Ġnan":2016,"ension":2017,"Ġdeath":2018,"Ġâ":2019,"Ġcur":2020,"ask":2021,"Ġsl":2022,"Ġdiab":2023,"Ġbone":2024,"Ġgluc":2025,"Ġinteraction":2026,"atin":2027,"âĢ²":2028,"Ġcontaining":2029,"icity":2030,"az":2031,"ern":2032,"Ġpathway":2033,"34":2034,"AD":2035,"Ġexamined":2036,"ject":2037,"Ġaim":2038,"Ġbu":2039,"oles":2040,"Ġelectr":2041,"Ġrecord":2042,"Ġinvestigated":2043,"Ġcollected":2044,"Ġassessed":2045,"pir":2046,"Ġfrequency":2047,"ware":2048,"ances":2049,"Ġtimes":2050,"Ġang":2051,"Ġcontrols":2052,"Ġvirus":2053,"ĠmRNA":2054,"Ġtrain":2055,"otherap":2056,"Ġmit":2057,"Ġmm":2058,"Ġtypes":2059,"Ġfail":2060,"enter":2061,"itation":2062,"Ġach":2063,"Ġabove":2064,"Î¼":2065,"Ġcentr":2066,"Ġhow":2067,"Ġsex":2068,"ible":2069,"Ġshows":2070,"helial":2071,"ateral":2072,"Ġproble":2073,"versity":2074,"oy":2075,"rial":2076,"Ġhighly":2077,"Ġplasma":2078,"Ġpressure":2079,"Ġ11":2080,"Âµ":2081,"des":2082,"Ġself":2083,"35":2084,"Ġachie":2085,"ocial":2086,"cep":2087,"tality":2088,"ĠRe":2089,"Ġtested":2090,"Ġestab":2091,"inant":2092,"bl":2093,"pected":2094,"ST":2095,"Ġpreval":2096,"Ġblock":2097,"Ġrats":2098,"OR":2099,"Ġcompos":2100,"Ġcarri":2101,"Ġfamily":2102,"ey":2103,"Ġmaterial":2104,"Ġstatus":2105,"Ġpercent":2106,"Ġcorrelation":2107,"Ġbar":2108,"Ġoper":2109,"Ġbetter":2110,"ols":2111,"onic":2112,"Ġleft":2113,"Ġactive":2114,"Ġknow":2115,"Ġbehavior":2116,"urthermore":2117,"enef":2118,"Ġthus":2119,"Ġinteg":2120,"Ġoutcomes":2121,"95":2122,"Ġsal":2123,"Ġsignaling":2124,"There":2125,"Ġsolution":2126,"Ġsequences":2127,"Ġprior":2128,"Ġscore":2129,"Ġur":2130,"38":2131,"Ġcharacteristics":2132,"Ġproperties":2133,"dependent":2134,"Ġaccur":2135,"type":2136,"mission":2137,"agement":2138,"MI":2139,"amp":2140,"Ġcross":2141,"Ġfocus":2142,"Ġstimul":2143,"Ġhospital":2144,"ru":2145,"Ġreaction":2146,"ml":2147,"Ġexample":2148,"36":2149,"hibition":2150,"ury":2151,"Ġlung":2152,"Ġstudied":2153,"operative":2154,"Ġorig":2155,"Ġmortality":2156,"ocy":2157,"set":2158,"Ġarter":2159,"tin":2160,"ysi":2161,"Ġprec":2162,"oring":2163,"ĠHe":2164,"Ġchronic":2165,"ext":2166,"ands":2167,"ints":2168,"anding":2169,"Ġintra":2170,"Ġmac":2171,"Ġexperimental":2172,"Ġsupp":2173,"However":2174,"Ġbenef":2175,"/-":2176,"Ġvitro":2177,"Ġdefined":2178,"100":2179,"Ġdecrease":2180,"Ġapplied":2181,"like":2182,"Ġlines":2183,")-":2184,"Ġvalid":2185,"Ġmedical":2186,"80":2187,"Ġindependent":2188,"Ġstep":2189,"Ġtak":2190,"ole":2191,"Ġanimals":2192,"Ġscreen":2193,"Ġexhibit":2194,"ators":2195,"utes":2196,"ially":2197,"Ġoverall":2198,"ĠAd":2199,"CI":2200,"Ġlight":2201,"Ġsevere":2202,"asis":2203,"Ġdiseases":2204,"Ġhere":2205,"Ġprolif":2206,"rag":2207,"Ġdiscus":2208,"Ġobserv":2209,"Ġselected":2210,"Ġmuscle":2211,"Ġpul":2212,"Ġauth":2213,"ices":2214,"AL":2215,"ER":2216,"Ġmedium":2217,"thesis":2218,"active":2219,"Ġlink":2220,"Ġoptim":2221,"Ġdiet":2222,"Ġrecent":2223,"Ġimpact":2224,"ether":2225,"Ġunc":2226,"Ġcarb":2227,"TP":2228,"ĠII":2229,"Ġdetection":2230,"Ġvac":2231,"Ġ17":2232,"Ġpoint":2233,"ĠUSA":2234,"Ġneuro":2235,"Ġsour":2236,"put":2237,"upplement":2238,"Ġimmune":2239,"Ġareas":2240,"Ġlack":2241,"33":2242,"Ġte":2243,"Ġclus":2244,"Ġ.":2245,"arc":2246,"ĠĠĠĠ":2247,"Ġpepti":2248,"Ġsystems":2249,"Ġlength":2250,"Ġoxid":2251,"NF":2252,"Ġread":2253,"AG":2254,"ina":2255,"Ġcondition":2256,"Ġviv":2257,"Ġprovided":2258,"ĠCO":2259,"Ġheter":2260,"ray":2261,"Ġstage":2262,"ogenesis":2263,"lusion":2264,"rad":2265,"Ġvolume":2266,"Ġweeks":2267,"urn":2268,"ales":2269,"Ġfive":2270,"ĠHIV":2271,"uk":2272,"Ġpsych":2273,"rim":2274,"otherapy":2275,"Ġability":2276,"Ġmedi":2277,"Ġemb":2278,"eric":2279,"ĠÎ²":2280,"Ġill":2281,"Ġoften":2282,"Ġshort":2283,"Ġvisual":2284,"Ġ40":2285,"ession":2286,"Ġinhibition":2287,"let":2288,"etes":2289,"Ġenergy":2290,"Ġantibody":2291,"utions":2292,"37":2293,"Ġgly":2294,"eding":2295,"ude":2296,"ots":2297,"ering":2298,"Ġspect":2299,"60":2300,"tif":2301,"Ġsuccess":2302,"Ġcriter":2303,"Ġinterest":2304,"Ġsum":2305,"Ġeth":2306,"gl":2307,"45":2308,"Ġrepe":2309,"METHODS":2310,"An":2311,"Ġtissues":2312,"ĠPro":2313,"lor":2314,"Ġacute":2315,"Ġvivo":2316,"Ġphot":2317,"ĠAm":2318,"ancy":2319,"It":2320,"Ġphysical":2321,"ledge":2322,"Ġrap":2323,"Ġright":2324,"ank":2325,"read":2326,"Ġinitial":2327,"plant":2328,"Ġvariables":2329,"ising":2330,"resh":2331,"ital":2332,"ino":2333,"Ġimaging":2334,"Ġcomparison":2335,"ring":2336,"ynam":2337,"hest":2338,"Ġpap":2339,"Ġdispl":2340,"32":2341,"Ġapproxim":2342,"AR":2343,"Ġbreast":2344,"kg":2345,"Ġfew":2346,"Ġmade":2347,"Ġmouse":2348,"Ġbaseline":2349,"not":2350,"Ġback":2351,"Ġsens":2352,"orb":2353,"oreover":2354,"go":2355,"lex":2356,"Ġtub":2357,"Ġadv":2358,"ĠâĢĺ":2359,"ogenic":2360,"Ġtherefore":2361,"arch":2362,"Ġtox":2363,"Th":2364,"uture":2365,"terior":2366,"ma":2367,"Ġ>":2368,"Ġnovel":2369,"ĠTherefore":2370,"Ġplay":2371,"rome":2372,"Ġapop":2373,"ĠOn":2374,"Ġmorph":2375,"ĠCa":2376,"Ġoff":2377,"Ġcontent":2378,"Ġdoes":2379,"pha":2380,"Ġoutcome":2381,"Ġstrains":2382,"trans":2383,"Ġfeatures":2384,"Ġdys":2385,"ler":2386,"abil":2387,"inally":2388,"Ġcombination":2389,"Ġcause":2390,"Ġsensitivity":2391,"Ġatten":2392,"Ġquestion":2393,"Ġtran":2394,"Ġevents":2395,"Ġpropor":2396,"Ġhep":2397,"PD":2398,"Ġprevalence":2399,"cell":2400,"Ġcontinu":2401,"Ġpeak":2402,"Ġisolated":2403,"Ġampl":2404,"ĠPD":2405,"DNA":2406,"ral":2407,"Ġfluores":2408,"Ġindex":2409,"ĠCT":2410,"Ġcount":2411,"fact":2412,"Ġconfirmed":2413,"Ġsoft":2414,"Ġsuggested":2415,"Ġdam":2416,"Ġstill":2417,"Ġreflec":2418,"tice":2419,"CS":2420,"Ġinterval":2421,"ones":2422,"eutic":2423,"Ġneurons":2424,"treated":2425,"Ġpow":2426,"lying":2427,"Ġinteractions":2428,"astic":2429,"Ġglucose":2430,"âĢīm":2431,"Ġhand":2432,"Ġcellular":2433,"Ġmonit":2434,"pri":2435,"Ġinfluence":2436,"ĠAfter":2437,"amine":2438,"ĠpH":2439,"uble":2440,"Ġdensity":2441,"ographic":2442,"oint":2443,"Ġlimited":2444,"Ġ60":2445,"ochem":2446,"Ġmetast":2447,"31":2448,"Ġul":2449,"Ġlay":2450,"sing":2451,"Ġfood":2452,"ĠThus":2453,"Ġfree":2454,"Ġseen":2455,"Ġscores":2456,"Ġimages":2457,"ave":2458,"ĠEx":2459,"BP":2460,"IN":2461,"Ġsurve":2462,"Ġantibodies":2463,"Ġepit":2464,"Ġposition":2465,"Ġprocesses":2466,"Ġdomain":2467,"antit":2468,"ret":2469,"Ġkey":2470,"Ġparen":2471,"Ġprotoc":2472,"Ġhealthy":2473,"Ġinclude":2474,"Ġfat":2475,"Ġwild":2476,"Âł=":2477,"orph":2478,"Ġinfec":2479,"ĠAD":2480,"Ġelectro":2481,"Ġtop":2482,"Ġbiological":2483,"Ġcat":2484,"istic":2485,"ries":2486,"ĠPCR":2487,"Ġintervention":2488,"Ġconsistent":2489,"Ġsubsequ":2490,"Ġtransi":2491,"Ġknowledge":2492,"ĠCon":2493,"Ġresulting":2494,"Ġtrials":2495,"otic":2496,"Ġliter":2497,"Ġrecogn":2498,"Ġreceived":2499,"aff":2500,"ople":2501,"ĠÎ±":2502,"Ġreduc":2503,"70":2504,"Ġtransfer":2505,"Ġpopulations":2506,"upplementary":2507,"Ġconstruc":2508,"Ġvers":2509,"Ġpathways":2510,"ethyl":2511,"odes":2512,"Ġplace":2513,"Ġcri":2514,"Ġsubst":2515,"Ġconst":2516,"Ġtraining":2517,"stit":2518,"Ġalthough":2519,"Ġyear":2520,"Ġkin":2521,"Ġmale":2522,"Ġcaused":2523,"ochond":2524,"Ġutil":2525,"Ġsocial":2526,"Ġdynam":2527,"Ġdiffic":2528,"Ġerr":2529,"Ġgenome":2530,"ĠmM":2531,"lo":2532,"Ġmanagement":2533,"ef":2534,"Ġx":2535,"ĠAt":2536,"ulf":2537,"Ġcateg":2538,"Ġhelp":2539,"vement":2540,"53":2541,"Ġdim":2542,"Ġrapid":2543,"pose":2544,"olar":2545,"aps":2546,"%),":2547,"Ġsuggesting":2548,"Ġcorresponding":2549,"Ġproposed":2550,"Ġgood":2551,"ector":2552,"Ġpublic":2553,"Ġchall":2554,"Ġlimit":2555,"izing":2556,"Ġtumors":2557,"Our":2558,"Ġtests":2559,"MA":2560,"ems":2561,"ids":2562,"ulate":2563,"Ġevaluate":2564,"ressing":2565,"year":2566,"Ġpoor":2567,"Ġmutations":2568,"Ġdiss":2569,"SD":2570,"ĠCA":2571,"Ġtranscription":2572,"ense":2573,"Ġmicroscop":2574,"Ġquanti":2575,"Ġstructures":2576,"Ġinjury":2577,"Ġabsence":2578,"Ġcoh":2579,"itis":2580,"Ġheart":2581,"opath":2582,"itu":2583,"Ġlig":2584,"Ġcriteria":2585,"oti":2586,"inary":2587,"ason":2588,"For":2589,"Ġpatterns":2590,"Ġax":2591,"gn":2592,"Ġsince":2593,"Ġphosphor":2594,"normal":2595,"Ġdiabetes":2596,"tle":2597,"Ġactivities":2598,"ĠmiR":2599,"ustr":2600,"Ġtask":2601,"Ġdetail":2602,"Ġproliferation":2603,"39":2604,"ploy":2605,"Ġincidence":2606,"44":2607,"ences":2608,"Ġregression":2609,"Ġexperiment":2610,"oh":2611,"Ġsuggests":2612,"emia":2613,"Ġpredict":2614,"Ġsix":2615,"any":2616,"Ġimproved":2617,"mL":2618,"Ġremo":2619,"Ġfrequ":2620,"Ġwor":2621,"Ġir":2622,"Ġcolon":2623,"unction":2624,"Ġauthors":2625,"Ġbiom":2626,"Ġelev":2627,"Ġproduced":2628,"ertain":2629,"Ġmeasures":2630,"Ġincreases":2631,"Ġassessment":2632,"Ġrecomm":2633,"Ġaffected":2634,"Ġ37":2635,"Ġrest":2636,"ean":2637,"ĠRes":2638,"Ġve":2639,"Ġfunctions":2640,"enced":2641,"tosis":2642,"Ġdrugs":2643,"Ġmeasurements":2644,"Ġfix":2645,"200":2646,"Ġprocedure":2647,"ygen":2648,"Ġestimated":2649,"Ġwid":2650,"ffer":2651,"artic":2652,"Ġcomponents":2653,"Ġtoward":2654,"Ġtrial":2655,"Ġpeople":2656,"Ġcomplete":2657,"oung":2658,"Ġsuper":2659,"ĠMS":2660,"bi":2661,"olic":2662,"pite":2663,"MD":2664,"Ġtherapeutic":2665,"aged":2666,"ressive":2667,"Ġliterature":2668,"pecially":2669,"aw":2670,"Ġdos":2671,"Ġsecondary":2672,"vices":2673,"Ġcoll":2674,"sp":2675,"ining":2676,"Ġâī":2677,"oding":2678,"CONCLUSIONS":2679,"Ġcompounds":2680,"Ġrelease":2681,"Ġsaf":2682,"Ġnecess":2683,"ier":2684,"Ġadap":2685,"fold":2686,"ĠÂµ":2687,"order":2688,"Ġmem":2689,"Ġprevent":2690,"here":2691,"rin":2692,"arb":2693,"Ġfemale":2694,"went":2695,"Ġenzyme":2696,"Ġreal":2697,"Ġexpected":2698,"isted":2699,"Ġpregn":2700,"Ġmid":2701,"Ġinvestigate":2702,"Ġconn":2703,"rix":2704,"Ġsubstr":2705,"Ġclear":2706,"Ġadded":2707,"Ġterms":2708,"Ġaccum":2709,"Ġmitochond":2710,"omal":2711,"icacy":2712,"Ġcogn":2713,"Ġinsulin":2714,"Ġcombined":2715,"Ġalle":2716,"Ġcarcin":2717,"Ġversus":2718,"Ġpair":2719,"ify":2720,"Ġexten":2721,"Ġplant":2722,"Ġalong":2723,"Ġclos":2724,"MR":2725,"Ġable":2726,"Ġess":2727,"formation":2728,"NP":2729,"Ġseg":2730,"Ġdeli":2731,"Ġapproximately":2732,"Ġregulation":2733,"ĠIg":2734,"Ġsurgical":2735,"Ġalg":2736,"âĢ¯":2737,"Ġeduc":2738,"ĠAlthough":2739,"hile":2740,"Ġyield":2741,"Ġgenerated":2742,"way":2743,"Ġload":2744,"Ġcarried":2745,"Ġhy":2746,"Ġespecially":2747,"ĠST":2748,"IP":2749,"Ġmig":2750,"pression":2751,"ĠMed":2752,"activ":2753,"Ġlat":2754,"Ġcry":2755,"Ġgast":2756,"Ġtransl":2757,"Ġamino":2758,"Ġcent":2759,"Ġside":2760,"Ġcere":2761,"Ġcorrelated":2762,"Ġartic":2763,"Ġdirectly":2764,"Ġlog":2765,"LA":2766,"otypes":2767,"Ġgo":2768,"49":2769,"Ġparti":2770,"man":2771,"CM":2772,"PCR":2773,"Ġsw":2774,"Ġmuch":2775,"ĠFurthermore":2776,"Ġfacil":2777,"ird":2778,"Ġsumm":2779,"rich":2780,"Ġduration":2781,"Ġsynd":2782,"Ġpoints":2783,"aced":2784,"Ġevaluation":2785,"Ġcycle":2786,"75":2787,"SP":2788,"Ġsch":2789,"Ġdifferentiation":2790,"Ġmarkers":2791,"dom":2792,"utri":2793,"Ġnat":2794,"Ġdri":2795,"ĠCl":2796,"Ġresulted":2797,"Ġfinal":2798,"Ġamount":2799,"ze":2800,"Ġact":2801,"Ġhours":2802,"Ġlesions":2803,"Ġexist":2804,"Ġrang":2805,"Ġpossi":2806,"Ġaffect":2807,"Ġapoptosis":2808,"Ġopen":2809,"KG":2810,"Ġeffici":2811,"Ġmutant":2812,"overy":2813,"Ġchann":2814,"agen":2815,"Ġpotenti":2816,"Ġstatistically":2817,"All":2818,"Ġhistory":2819,"Ġdistinc":2820,"Ġhypot":2821,"Ġaltern":2822,"Ġconsider":2823,"Ġpoly":2824,"Ġher":2825,"Ġquantit":2826,"luded":2827,"ument":2828,"imal":2829,"Ġmolecules":2830,"urrence":2831,"Ġadhe":2832,"Ġreduce":2833,"Ġfuture":2834,"201":2835,"CG":2836,"Ġfrag":2837,"Ġcentral":2838,"Ġquantif":2839,"Âłm":2840,"Ġdirec":2841,"Ġdetect":2842,"ld":2843,"Ġview":2844,"IF":2845,"ĠÃĹ":2846,"Ġimplement":2847,"Ġreference":2848,"regulated":2849,"Ġtransf":2850,"orders":2851,"48":2852,"90":2853,"Ġincubated":2854,"arding":2855,"Ġcharacterized":2856,"Ġprep":2857,"ĠEn":2858,"enz":2859,"42":2860,"ĠIm":2861,"ported":2862,"Ġtechnique":2863,"atients":2864,"oratory":2865,"rh":2866,"Ġindicating":2867,"Ġcapac":2868,"Ġ\"":2869,"Ġinflammatory":2870,"Ġfile":2871,"Ġdiscuss":2872,"Ġskin":2873,"Ġsynthesis":2874,"Ġtyp":2875,"ream":2876,"ious":2877,"priate":2878,"Ġintro":2879,"Ġ+/-":2880,"Ġadministration":2881,"Ġdatab":2882,"Ġpower":2883,"Ġ48":2884,"Ġadult":2885,"Ġsil":2886,"EG":2887,"Ġagg":2888,"ologic":2889,"Ġlarger":2890,"Ġdamage":2891,"Ġneut":2892,"Ġguid":2893,"âĢĬ=":2894,"Ġlear":2895,"reng":2896,"Ġtesting":2897,"Ġcop":2898,"Ġrelatively":2899,"Ġvacc":2900,"Ġstatistical":2901,"Ġscale":2902,"aking":2903,"ĠPA":2904,"bers":2905,"chem":2906,"ECT":2907,"iat":2908,"Ġoste":2909,"47":2910,"CP":2911,"Ġyoung":2912,"Ġunderstanding":2913,"Ġrecorded":2914,"ĠâĪĴ":2915,"Ġrequire":2916,"kn":2917,"VA":2918,"Ġhighest":2919,"Ġconsum":2920,"time":2921,"vice":2922,"Ch":2923,"Ġphysi":2924,"otor":2925,"ĠCom":2926,"Ġwhole":2927,"Ġmaximum":2928,"Ġintensity":2929,"iversity":2930,"Ġcritical":2931,"Ġbro":2932,"Ġemerg":2933,"Ġstaining":2934,"oxid":2935,"%).":2936,"Âł1":2937,"CO":2938,"Ġintrac":2939,"Ġselection":2940,"ytic":2941,"St":2942,"Ġsupplement":2943,"Ġefficacy":2944,"Ġplate":2945,"urse":2946,"Ġcost":2947,"Ġchromos":2948,"Ġtog":2949,"Ġimage":2950,"Ġneeded":2951,"RA":2952,"TT":2953,"Ġmedian":2954,"Ġdepend":2955,"erate":2956,"Ġcytok":2957,"Ġstimulation":2958,"Ġtogether":2959,"%.":2960,"Ġsetting":2961,"orption":2962,"see":2963,"Ġprogression":2964,"BAC":2965,"Ġdoc":2966,"Ġvariation":2967,"Ġshe":2968,"Ġreceptors":2969,"Ġcommunity":2970,"FP":2971,"Ġ2010":2972,"Ġprovides":2973,"trol":2974,"Ġmeans":2975,"EN":2976,"Ġfailure":2977,"ĠMoreover":2978,"aches":2979,"Ġuseful":2980,"Ġderived":2981,"adi":2982,"oplasm":2983,"Ġrenal":2984,"Ġprogn":2985,"UND":2986,"46":2987,"Ġstreng":2988,"Ġsoftware":2989,"Ġdifficult":2990,"43":2991,"Ġpharm":2992,"otox":2993,"Ġ2013":2994,"Ġinhibitor":2995,"yr":2996,"Ġanother":2997,"Ġemploy":2998,"ories":2999,"Ġthough":3000,"ĠER":3001,"Ġair":3002,"Ġey":3003,"Ġalter":3004,"group":3005,"Ġ&":3006,"Ġplants":3007,"Ġestablished":3008,"Ad":3009,"ĠBi":3010,"sh":3011,"Ġ21":3012,"RNAs":3013,"anol":3014,"Ġhost":3015,"Ġcardiac":3016,"Ġpaper":3017,"Ġmetabolic":3018,"Ġbacterial":3019,"KGRO":3020,"aired":3021,"KGROUND":3022,"ĠNa":3023,"ney":3024,"Ġpredicted":3025,"Ġfit":3026,"Ġadults":3027,"Ġstar":3028,"Ġproducts":3029,"ii":3030,"mediated":3031,"Ġpan":3032,"Ġfull":3033,"Ġglob":3034,"âĢī<":3035,"Ġbest":3036,"Ġabnormal":3037,"Ġ2012":3038,"Ġdisorders":3039,"Ġsuccessful":3040,"Ġscreening":3041,"BACKGROUND":3042,"emic":3043,"ocyte":3044,"Ġaff":3045,"Ġlinear":3046,"day":3047,"Ġhal":3048,"Ġcohort":3049,"Ġappear":3050,"ĠHealth":3051,"Ġembry":3052,"Ġenhanced":3053,"hydro":3054,"Ġprote":3055,"ayed":3056,"Ġinvas":3057,"Ġalone":3058,"estern":3059,"Ġpractice":3060,"Ġhead":3061,"ĠPh":3062,"ulating":3063,"orith":3064,"TA":3065,"Ġvascular":3066,"hol":3067,"Ġ2011":3068,"NO":3069,"met":3070,"oz":3071,"Ġremains":3072,"65":3073,"Ġsynthe":3074,"Ġpercentage":3075,"Ġindicates":3076,"Ġmedic":3077,"Ġmatrix":3078,"Ġintegr":3079,"Ġcatal":3080,"Ġ2014":3081,"Ġconver":3082,"Ġ28":3083,"ps":3084,"Ġdemonstrate":3085,"bo":3086,"Ġupon":3087,"Ġtranscrip":3088,"OB":3089,"Ġinflammation":3090,"DL":3091,"imilar":3092,"Ġapplication":3093,"Ġsecre":3094,"Ġessential":3095,"aily":3096,"Ġchemical":3097,"Ġsyndrome":3098,"ĠOur":3099,"Ġmutation":3100,"nai":3101,"ocardi":3102,"Ġleading":3103,"ets":3104,"Ġoxygen":3105,"Ġparticularly":3106,"Ġcluster":3107,"Ġshowing":3108,"Ġdil":3109,"Ġanimal":3110,"taining":3111,"Ġoccurred":3112,"Ġexerc":3113,"Âłal":3114,"Ġalgorith":3115,"ings":3116,"Ġbir":3117,"Ġrelevant":3118,"Ġ*":3119,"tered":3120,"Ġrather":3121,"duce":3122,"ipher":3123,"Ġproportion":3124,"Ġbuffer":3125,"ocal":3126,"Ġabund":3127,"ibr":3128,"Ġprotocol":3129,"Ġcomplications":3130,"ou":3131,"57":3132,"vari":3133,"ded":3134,"Ġsmok":3135,"Ġiss":3136,"Ġtaken":3137,"Ġtechniques":3138,"Ġinjection":3139,"Ġepid":3140,"reshold":3141,"Ġstrategies":3142,"Ġdig":3143,"Ġrare":3144,"entric":3145,"âĢĶ":3146,"Ġoral":3147,"Ġsitu":3148,"Ġdon":3149,"Ġcult":3150,"rm":3151,"Ġaccess":3152,"Ġrecently":3153,"Ġinterp":3154,"jective":3155,"Ġcognitive":3156,"rosis":3157,"Ġstructural":3158,"Ġappropriate":3159,"Ġacet":3160,"eed":3161,"ĠMD":3162,"ipp":3163,"agne":3164,"rup":3165,"Ġear":3166,"rit":3167,"Ġimportance":3168,"Ġcountries":3169,"41":3170,"Ġnm":3171,"stric":3172,"Ġhaving":3173,"Ġcut":3174,"izes":3175,"Ġrepro":3176,"Ġaction":3177,"67":3178,"PC":3179,"Ġdegree":3180,"ovascular":3181,"Ġobes":3182,"Ġacids":3183,"Ġendot":3184,"Ġaround":3185,"Ġdistinct":3186,"Ġ2015":3187,"SS":3188,"ogenous":3189,"by":3190,"Ġcapacity":3191,"Ġlit":3192,"acts":3193,"MT":3194,"Ġglyc":3195,"monary":3196,"Ġseries":3197,"lish":3198,"eg":3199,"for":3200,"ective":3201,"ĠCR":3202,"Ġcm":3203,"ape":3204,"Ġmel":3205,"ame":3206,"Ġlast":3207,"Ġprost":3208,"Ġreli":3209,"Ġmeasurement":3210,"ifically":3211,"Ġbelow":3212,"Ġ2009":3213,"Ġsource":3214,"opro":3215,"Ġkinase":3216,"Ġhome":3217,"Ġbasis":3218,"tt":3219,"Ġinternal":3220,"Ġpublished":3221,"99":3222,"AB":3223,"ending":3224,"Ġthick":3225,"Ġmetabolism":3226,"pr":3227,"Ġlater":3228,"Ġcomponent":3229,"Ġbacteria":3230,"Ġeng":3231,"ool":3232,"ili":3233,"Ġconven":3234,"Ġnuclear":3235,"Ġrecru":3236,"Ġlipid":3237,"Ġregard":3238,"JECT":3239,"LC":3240,"Ġ22":3241,"erve":3242,"Ġdaily":3243,"LI":3244,"yro":3245,"Ġsignificance":3246,"Ġdiagnostic":3247,"ik":3248,"icro":3249,"Ġcontext":3250,"brid":3251,"Ġfluorescence":3252,"Ġevolution":3253,"aro":3254,"ED":3255,"Ġmainly":3256,"Ġnatural":3257,"Ġion":3258,"Ġcho":3259,"tex":3260,"Ġnumbers":3261,"hood":3262,"inated":3263,"Ġexperience":3264,"Ġmacroph":3265,"ochemical":3266,"Ġ,":3267,"CH":3268,"Ġstable":3269,"occ":3270,"itude":3271,"Ġfram":3272,"estinal":3273,"asts":3274,"orn":3275,"ges":3276,"usted":3277,"Ġmagn":3278,"Ġinfected":3279,"Ġinduction":3280,"ingly":3281,"Ġnecessary":3282,"Ġ35":3283,"Ġprepared":3284,"lus":3285,"Ġstem":3286,"Ġimprovement":3287,"ystem":3288,"Ġcoe":3289,"Ġinfections":3290,"AA":3291,"ct":3292,"Ġdistance":3293,"Ġcryst":3294,"pect":3295,"Ġ90":3296,"uter":3297,"rees":3298,"iving":3299,"Con":3300,"Ġfraction":3301,"icial":3302,"EC":3303,"raw":3304,"Ġpeptide":3305,"ights":3306,"Ġlike":3307,".[":3308,"Ġthreshold":3309,"ched":3310,"Ġtreatments":3311,"Ġviral":3312,"iatric":3313,"Ġspati":3314,"Ġinduc":3315,"Ġvariable":3316,"Ġperipher":3317,"Ġreports":3318,"Ġantigen":3319,"Ġagents":3320,"less":3321,"yg":3322,"Ġregarding":3323,"positive":3324,"ique":3325,"Ġassum":3326,"Ġolder":3327,"Ġbound":3328,"JECTIV":3329,"55":3330,"Ġsubsequent":3331,"Ġmar":3332,"ground":3333,"isms":3334,"Ġpor":3335,"sized":3336,"aling":3337,"Ġrestric":3338,"Ġpolymer":3339,"Ġinst":3340,"omas":3341,"Ġenvironmental":3342,"Although":3343,"obl":3344,"Ġaccuracy":3345,"Ġelevated":3346,"Ġstrategy":3347,"Ġachieved":3348,"uct":3349,"Ex":3350,"Ġ80":3351,"Ġexamination":3352,"ophil":3353,"Ġproblem":3354,"Ġcontribute":3355,"Ġenhance":3356,"ĠCo":3357,"land":3358,"Ġprocedures":3359,"range":3360,"Ġapproaches":3361,"Ġdesigned":3362,"ĠCH":3363,"Ġevery":3364,"ples":3365,"Ġcall":3366,"Ġseed":3367,"den":3368,"outh":3369,"SC":3370,"OH":3371,"Ġnutri":3372,"otyp":3373,"Âł2":3374,"EP":3375,"Ġprocessing":3376,"Âł0":3377,"Ġway":3378,"Ġdegrad":3379,"Ġshif":3380,"ycin":3381,"oids":3382,"etal":3383,"free":3384,"Ġcontinuous":3385,"Ġge":3386,"com":3387,"be":3388,"ching":3389,"Ġconfirm":3390,"Ġsurvey":3391,"Ġalpha":3392,"Ġmajority":3393,"ĠPC":3394,"ologies":3395,"Ġdelivery":3396,"Ġlocated":3397,"Ġproblems":3398,"Ġaden":3399,"IR":3400,"most":3401,"rem":3402,"Ġspectr":3403,"imens":3404,"ck":3405,"Ġtherm":3406,"Ġmust":3407,"Ġalco":3408,"itr":3409,"Ġkid":3410,"known":3411,"Ġprofil":3412,"ĠSD":3413,"care":3414,"Ġmes":3415,"Ġuntil":3416,"IC":3417,"ociated":3418,"orpor":3419,"erved":3420,"irus":3421,"ĠAr":3422,"Ġexercise":3423,"anning":3424,"Ġfacilit":3425,"radi":3426,"Ġlonger":3427,"ĠâĢĵ":3428,"take":3429,"agnetic":3430,"Ġ26":3431,"Ġbur":3432,"Ġunderlying":3433,"Ġhypothesis":3434,"vention":3435,"aces":3436,"Ġ2008":3437,"OBJECTIV":3438,"Ġinhibitors":3439,"Ġlys":3440,"odium":3441,"Ġlayer":3442,"Ġcoup":3443,"Ġcourse":3444,"Ġtransport":3445,"Res":3446,"hy":3447,"omer":3448,"NS":3449,"Ġsignals":3450,"ached":3451,"Ġmalign":3452,"Ġexposed":3453,"Ġcarbon":3454,"Ġinterventions":3455,"que":3456,"56":3457,"troph":3458,"Ġcontrolled":3459,"Ġslight":3460,"Ġdatas":3461,"Ġdevi":3462,"leep":3463,"Ġmembers":3464,"Ġeas":3465,"ĠAP":3466,"Ġrepresents":3467,"ĠRT":3468,"Ġquestionnai":3469,"Ġrespir":3470,"ĠAT":3471,"Ġperce":3472,"arv":3473,"eness":3474,"Ġtrig":3475,"Ġfemales":3476,"ĠIF":3477,"bial":3478,"Here":3479,"Ġangi":3480,"bs":3481,"igned":3482,"Ġerror":3483,"LR":3484,"Ġefficiency":3485,"yst":3486,"inity":3487,"cepti":3488,"Ġattrib":3489,"Ġassays":3490,"emi":3491,"arily":3492,"umin":3493,"au":3494,"roc":3495,"ĠSp":3496,"Ġbeta":3497,"Ġrecomb":3498,"oscop":3499,"Ġcertain":3500,"icians":3501,"Ġmemory":3502,"function":3503,"PV":3504,"Ġidentification":3505,"Ġantibio":3506,"istry":3507,"Ġovere":3508,"Ġevent":3509,"equ":3510,"Ġunderwent":3511,"Ġsubstanti":3512,"Ġonset":3513,"Ġtend":3514,"Ġ2007":3515,"Ġdele":3516,"eling":3517,"Ġdepression":3518,"idity":3519,"Ġstability":3520,"ĠUniversity":3521,"Ġhyperten":3522,"Ġtempor":3523,"Ġ29":3524,"stream":3525,"tag":3526,"itrogen":3527,"Ġmitochondrial":3528,"off":3529,"Ġinduce":3530,"inflamm":3531,"âĢħ":3532,"Ġstudents":3533,"Ġactivated":3534,"Ġrepl":3535,"Ġrespond":3536,"Ġmamm":3537,"Ġmales":3538,"esthe":3539,"Ġdiagnosed":3540,"Ġtren":3541,"osts":3542,"Ġbo":3543,"urb":3544,"inical":3545,"ylated":3546,"romb":3547,"Ġcauses":3548,"Ġmarked":3549,"Ġlaboratory":3550,"Ġphosphorylation":3551,"Ġlearning":3552,"Ġhalf":3553,"ĠOne":3554,"Ġalternative":3555,"Ġtool":3556,"Ġdouble":3557,"Ġdivid":3558,"Ġpharmac":3559,"Ġstages":3560,"Ġeducation":3561,"terol":3562,"Ġcomm":3563,"Ġpromoter":3564,"ats":3565,"mediate":3566,"Ġmarker":3567,"NT":3568,"lob":3569,"ometry":3570,"regulation":3571,"umn":3572,"ict":3573,"Ġadverse":3574,"Ġphenotype":3575,"Ġartery":3576,"CF":3577,"Ġbr":3578,"eled":3579,"Ġresour":3580,"osa":3581,"Ġsubstrate":3582,"ĠData":3583,"ditionally":3584,"Ġwall":3585,"anal":3586,"RS":3587,"bb":3588,"88":3589,"Ġagree":3590,"Ġdiscussed":3591,"Ġaccumulation":3592,"Ġ2016":3593,"Ġsequencing":3594,"ĠStud":3595,"Ġavoid":3596,"bral":3597,"plantation":3598,"sia":3599,"alk":3600,"Ġfer":3601,"Ġche":3602,"Ġhyd":3603,"Ġelectron":3604,"ĠWT":3605,"Ġbroad":3606,"Ġ70":3607,"mitted":3608,"Ġexhibited":3609,"Ġundergo":3610,"Ġ45":3611,"Ġtoler":3612,"SH":3613,"Ġ23":3614,"ĠAg":3615,"Ġglobal":3616,"ĠCell":3617,"Ġextent":3618,"Ġaccount":3619,"itions":3620,"Ġhighl":3621,"Ġcarcinoma":3622,"Ġperipheral":3623,"IL":3624,"Ġstrongly":3625,"Ġprofile":3626,"Ġvector":3627,"Ġversion":3628,"Ġchalleng":3629,"Ġfixed":3630,"Ġprepar":3631,"GG":3632,"olved":3633,"BD":3634,"Ġpulmonary":3635,"Ġ27":3636,"Ġconfidence":3637,"Ġsimple":3638,"Ġresidues":3639,"Ġmixed":3640,"Ġcompare":3641,"Ġinhibited":3642,"aring":3643,"Ġdependent":3644,"Ġpref":3645,"associated":3646,"ĠInc":3647,"NPs":3648,"ects":3649,"ton":3650,"ĠSe":3651,"Ġinser":3652,"AM":3653,"Ġmuc":3654,"ancre":3655,"Ġforms":3656,"Ġhorm":3657,"etic":3658,"Ġdiamet":3659,"Ġextracted":3660,"Ġsci":3661,"Ġchain":3662,"atives":3663,"years":3664,"Ġreason":3665,"Ġdatabase":3666,"roke":3667,"ils":3668,"Ġphysiological":3669,"âĢīÂ±":3670,"Ġimpair":3671,"Ġconstant":3672,"68":3673,"Ġspecificity":3674,"Ġmake":3675,"Ġintracellular":3676,"Ġthird":3677,"Ã©":3678,"Ġepithelial":3679,"Ġwhat":3680,"Ġstrength":3681,"Ġdeveloping":3682,"Ġroom":3683,"Ġproduce":3684,"Ġmotor":3685,"ope":3686,"Ġenzymes":3687,"Se":3688,"Ġuptake":3689,"oster":3690,"Ġspecial":3691,"Ġalcohol":3692,"arent":3693,"Ġsuscepti":3694,"Ġproduct":3695,"Ġtransmission":3696,"Ġweak":3697,"Ġgenerally":3698,"cm":3699,"Ġleads":3700,"On":3701,"Ġsleep":3702,"Ġsensitive":3703,"Ġpotentially":3704,"Ġparas":3705,"Ġcontact":3706,"Ġpregnancy":3707,"Ġnoted":3708,"Ġgenomic":3709,"Ġunique":3710,"Ġsearch":3711,"Ġsee":3712,"Ġultr":3713,"ĠWhen":3714,"Ġexamine":3715,"ĠÂ°":3716,"OD":3717,"aries":3718,"At":3719,"GFR":3720,"dim":3721,"ĠÏ":3722,"spective":3723,"ĠCS":3724,"BM":3725,"Ġmodified":3726,"use":3727,"Ġchlor":3728,"ars":3729,"Ġcomposition":3730,"Ġnor":3731,"85":3732,"rolog":3733,"otide":3734,"Ġslow":3735,"Ġfract":3736,"Ġsafety":3737,"HR":3738,"xt":3739,"Ġrecovery":3740,"Ġcorrec":3741,"Ġtargets":3742,"ww":3743,"stim":3744,"isc":3745,"Ġrun":3746,"HC":3747,"Ġseverity":3748,"Ġvariants":3749,"Ġoccurs":3750,"ĠIII":3751,"Ġdisorder":3752,"Ġenti":3753,"Ġchemotherapy":3754,"Ġbase":3755,"Ġâī¥":3756,"ĠAc":3757,"Ġdomains":3758,"ĠNo":3759,"elines":3760,"Ġcommonly":3761,"Ġmoderate":3762,"Ġadvant":3763,"Ġrob":3764,"ometric":3765,"amic":3766,"ula":3767,"ancer":3768,"iting":3769,"66":3770,"Ġcalcium":3771,"Ġusually":3772,"sec":3773,"Ġdone":3774,"Ġheterogene":3775,"inflammatory":3776,"Ġcultured":3777,"Ġmigration":3778,"Ġcannot":3779,"hers":3780,"Ġintake":3781,"ĠOR":3782,"Ġcardiovascular":3783,"urg":3784,"Ġaged":3785,"PI":3786,"Ġled":3787,"Ġdoses":3788,"Ġow":3789,"Ġfluid":3790,"Ġtw":3791,"Ġfind":3792,"Ġendothelial":3793,"Ġgel":3794,"ophag":3795,"Ġservices":3796,"Ġspace":3797,"After":3798,"Ġdefin":3799,"Ġblot":3800,"Ġresponsible":3801,"Ġlocation":3802,"BC":3803,"Î³":3804,"ĠTNF":3805,"Ġ).":3806,"Ġquantitative":3807,"ĠGen":3808,"ote":3809,"Ġmaterials":3810,"Ġmonitoring":3811,"Ġsection":3812,"Ġent":3813,"ĠCol":3814,"Ġfeed":3815,"Ġlate":3816,"Ġothers":3817,"Ġkidney":3818,"Ġupper":3819,"Ġgeneration":3820,"Ġturn":3821,"rospec":3822,"phosph":3823,"Ġcore":3824,"ĠIV":3825,"Ġvit":3826,"Ġlittle":3827,"ergic":3828,"did":3829,"ĠSimilar":3830,"Ġleuk":3831,"urop":3832,"Ġfrequently":3833,"Ġnerve":3834,"Ġappears":3835,"Ġ2006":3836,"Ġconstit":3837,"Ġoverex":3838,"genic":3839,"Ġalgorithm":3840,"Ġdegradation":3841,"inate":3842,"elling":3843,"Ġbind":3844,"sis":3845,"Ġstates":3846,"89":3847,"Ġconventional":3848,"ĠSh":3849,"Ġbiop":3850,"Ġimm":3851,"Ġisolates":3852,"Ġworld":3853,"Ġspatial":3854,"Ġglut":3855,"Ġdefici":3856,"Ġden":3857,"plicated":3858,"Âł3":3859,"olec":3860,"ternal":3861,"Ġbecome":3862,"PR":3863,"Ġfar":3864,"87":3865,"Ġpancre":3866,"Ġsections":3867,"Am":3868,"Ġful":3869,"ĠRec":3870,"Ġcandid":3871,"Ġreactions":3872,"week":3873,"Ġknock":3874,"ĠThey":3875,"eral":3876,"dle":3877,"Ġcoli":3878,"Ġrol":3879,"Ġbias":3880,"olesterol":3881,"wise":3882,"Ġbio":3883,"onary":3884,"Ġpig":3885,"Ġnow":3886,"ged":3887,"Ġhumans":3888,"Ġlas":3889,"ecause":3890,"Ġremoved":3891,"GE":3892,"osp":3893,"ibility":3894,"iety":3895,"Ġincorpor":3896,"Ġcultures":3897,"Ġassemb":3898,"Ġremained":3899,"Ġnature":3900,"Ġestimate":3901,"ccording":3902,"Ġformed":3903,"Ġyet":3904,"Ġexcluded":3905,"jected":3906,"Ġrepeated":3907,"oral":3908,"DM":3909,"ished":3910,"Ġradiation":3911,"Ġfast":3912,"Ġdescribe":3913,"ĠAL":3914,"Ġconcern":3915,"Ġcurve":3916,"obacter":3917,"Ġgran":3918,"orts":3919,"Ġwhite":3920,"Ġrespect":3921,"DH":3922,"ta":3923,"(-":3924,"Ġwidely":3925,"Ġsoci":3926,"Ġvariety":3927,"OC":3928,"yroid":3929,"def":3930,"TR":3931,"Ġfibro":3932,"Ġpolymorph":3933,"Ġobtain":3934,"Supplementary":3935,"Ġmental":3936,"activity":3937,"54":3938,"Ġinput":3939,"atient":3940,"istent":3941,"Ġmedia":3942,"Ġattention":3943,"terest":3944,"Ġvary":3945,"epend":3946,"Ġfav":3947,"jug":3948,"Ġventric":3949,"Ġbackground":3950,"ĠPBS":3951,"aster":3952,"51":3953,"down":3954,"Ġstroke":3955,"Ġwide":3956,"alle":3957,"Ġplaced":3958,"Ġinterview":3959,"apping":3960,"Ġprinc":3961,"Ġregulatory":3962,"test":3963,"Ġvess":3964,"Ġrespiratory":3965,"Ġextract":3966,"Ġ2000":3967,"Ġmanner":3968,"Ġoptimal":3969,"Ġhybrid":3970,"Ġsmaller":3971,"apan":3972,"Ġoxidative":3973,"neum":3974,"crib":3975,"63":3976,"ĠGerm":3977,"Ġthroughout":3978,"Ġobservation":3979,"Ġclose":3980,"back":3981,"ĠPT":3982,"Ġcortex":3983,"69":3984,"tiveness":3985,"Ġadi":3986,"Ġconsumption":3987,"FA":3988,"rog":3989,"âĢīÎ¼":3990,"ĠChina":3991,"Ġster":3992,"gi":3993,"rip":3994,"eta":3995,"Ġpostoperative":3996,"Ġlateral":3997,"ariate":3998,"Ġnur":3999,"Ġconse":4000,"ash":4001,"Ġprop":4002,"Ġanterior":4003,"Ġsubun":4004,"tile":4005,"Ġbirth":4006,"Ġunknown":4007,"iral":4008,"64":4009,"derived":4010,"Ġalmost":4011,"IT":4012,"Ġold":4013,"Ġgender":4014,"Ġrepair":4015,"52":4016,"Ġmacrophages":4017,"nm":4018,"Ġminutes":4019,"Ġbelie":4020,"Ġhypertension":4021,"Ġaggreg":4022,"Ġadministered":4023,"ĠSci":4024,"rief":4025,"Ġ2005":4026,"otal":4027,"Ġtreat":4028,"aves":4029,"rep":4030,"//":4031,"lation":4032,"Ġolig":4033,"ĠĠĠĠĠĠĠĠ":4034,"Ġunit":4035,"Ġelements":4036,"ĠLe":4037,"Ġmeta":4038,"Ġcolumn":4039,"Ġpanel":4040,"mod":4041,"Ġbarri":4042,"ĠAmeric":4043,"Ġdiameter":4044,"EL":4045,"Ġmicroscopy":4046,"Ġrelationships":4047,"Ġmutants":4048,"Ġfamil":4049,"Ġtransition":4050,"ounts":4051,"Ġclassification":4052,"ÎĶ":4053,"ufact":4054,"Ġobservations":4055,"ifferen":4056,"rine":4057,"62":4058,"Ġsystemic":4059,"ĠNF":4060,"Ġspecifically":4061,"Ġsystematic":4062,"ighted":4063,"terestingly":4064,"Ġestimates":4065,"HA":4066,"wide":4067,"ĠIC":4068,"Ġneural":4069,"Ġprofiles":4070,"+)":4071,"Ġparticles":4072,"Ġsmoking":4073,"BI":4074,"ĠÎĶ":4075,"ĠAp":4076,"GA":4077,"Ġassociations":4078,"Ġliqu":4079,"Ġsodium":4080,"ĠAf":4081,"://":4082,"59":4083,"valent":4084,"tation":4085,"lier":4086,"entific":4087,"Ġcomplexes":4088,"mentation":4089,"ĠIf":4090,"lear":4091,"Ġrecommend":4092,"Ġneeds":4093,"Ġprobability":4094,"gin":4095,"Ġfully":4096,"02":4097,"asp":4098,"OX":4099,"lab":4100,"77":4101,"mic":4102,"Ġapproved":4103,"eti":4104,"Ġdysfunction":4105,"58":4106,"cers":4107,"Ġnumer":4108,"Ġrequires":4109,"Ġmanufact":4110,"Ġdynamics":4111,"erative":4112,"Ġbil":4113,"âĢīh":4114,"Ġapplications":4115,"Ġallows":4116,"Ġarticle":4117,"Ġdepos":4118,"ID":4119,"lim":4120,"Ġentire":4121,"Ġguidelines":4122,"ultaneous":4123,"Ġdivided":4124,"Ġcoronary":4125,"Ġtowards":4126,"Ġcorrect":4127,"cript":4128,"Ġdecision":4129,"Ġide":4130,"ostic":4131,"Ġsulf":4132,"Ġischem":4133,"Ġste":4134,"isation":4135,"inter":4136,"Ġillustr":4137,"ches":4138,"ĠIgG":4139,"Ġoverl":4140,"Ġpast":4141,"Ġorigin":4142,"Ġunderstand":4143,"utive":4144,"ĠmL":4145,"Ġperson":4146,"sequently":4147,"ifest":4148,"ĠJapan":4149,"Ġresolution":4150,"Ġcoord":4151,"Ġestablish":4152,"ytes":4153,"Ġlesion":4154,"ott":4155,"raz":4156,"Ġsatis":4157,"Ġcontained":4158,"GFP":4159,"Ġagreement":4160,"Ġsqu":4161,"Ġpen":4162,"Ġforce":4163,"Ġobesity":4164,"Pro":4165,"Ġdocument":4166,"inations":4167,"ĠPl":4168,"Ġcompr":4169,"ĠAND":4170,"ĠWhile":4171,"Ġcollection":4172,"onstruc":4173,"Ġbiomark":4174,"Ġclearly":4175,"ĠATP":4176,"Ġ36":4177,"Ġsampling":4178,"erred":4179,"ocl":4180,"igma":4181,"seud":4182,"Ġ32":4183,"Âłh":4184,"Ġcurrently":4185,"Ġnext":4186,"CV":4187,"Ġbenefit":4188,"Â·":4189,"Ġpurpose":4190,"Ġmil":4191,"Ġseven":4192,"ĠHR":4193,"Ġsoil":4194,"86":4195,"aria":4196,"PP":4197,"Ġthromb":4198,"Ġemo":4199,"Ġtoxicity":4200,"Ġput":4201,"Ġpossibility":4202,"Ġacqui":4203,"Ġvariability":4204,"Ġobjective":4205,"Ġlinked":4206,"ella":4207,"Ġadvanced":4208,"Ġsi":4209,"Ġremain":4210,"ĠEurop":4211,"Ġroot":4212,"Ġinvolvement":4213,"ococc":4214,"uit":4215,"ured":4216,"Ġposterior":4217,"Ġsets":4218,"ogram":4219,"Ġneuronal":4220,"Ġsecretion":4221,"espite":4222,"Ġmediated":4223,"Ġthickness":4224,"Ġhis":4225,"Ġreducing":4226,"mol":4227,"Ġphyl":4228,"Ġcontains":4229,"Ġtranscript":4230,"Ġmagnetic":4231,"ĠÎ¼g":4232,"ening":4233,"Ġbal":4234,"Ġspecimens":4235,"Ġsubstit":4236,"ortic":4237,"ĠSupplementary":4238,"Ġadoles":4239,"onucle":4240,"Ġunits":4241,"Ġcomparable":4242,"Ġtransform":4243,"Ġrout":4244,"Ġprofession":4245,"79":4246,"ria":4247,"Ġnanop":4248,"Ġreproduc":4249,"Ġeight":4250,"73":4251,"osyn":4252,"Ġdiversity":4253,"Ġsolid":4254,"SM":4255,"idine":4256,"SE":4257,"ĠDM":4258,"Ġband":4259,"Ġmixture":4260,"Ġslightly":4261,"Ġinhibitory":4262,"Ġstimuli":4263,"ĠTr":4264,"Ġfollows":4265,"Ġextracellular":4266,"BL":4267,"ensional":4268,"immun":4269,"Ġnear":4270,"Ġ72":4271,"amide":4272,"osomes":4273,"icle":4274,"vision":4275,"ept":4276,"ĠIFN":4277,"78":4278,"Ġclassified":4279,"Ġallowed":4280,"Ġoriginal":4281,"):":4282,"Ġtemporal":4283,"Ġroles":4284,"Ġ2004":4285,"eared":4286,"Ġmechanical":4287,"Ġwashed":4288,"Ġrandomized":4289,"link":4290,"Ġbasal":4291,"Ġquestions":4292,"Ġsynap":4293,"Ġpack":4294,"ĠFe":4295,"tely":4296,"ĠAfric":4297,"point":4298,"Ġchromosome":4299,"Ġfund":4300,"Ġod":4301,"ert":4302,"Ġmill":4303,"Ġinvestigation":4304,"Ġremaining":4305,"Ġ2017":4306,"PT":4307,"Ġaccept":4308,"Ġmaternal":4309,"alian":4310,"Ġsufficient":4311,"Ġincubation":4312,"Ġmyocardi":4313,"ĠRA":4314,"ĠMA":4315,"binding":4316,"Ġnorm":4317,"Ġconclusion":4318,"Ġsources":4319,"Ġmother":4320,"No":4321,"ire":4322,"Ġpredom":4323,"eli":4324,"Ġapparent":4325,"Ġ31":4326,"econd":4327,"Ġparameter":4328,"Ġmiss":4329,"Ġgreen":4330,"Ġinterf":4331,"Ġquestionnaire":4332,"One":4333,"Ġcholesterol":4334,"ĠMRI":4335,"Ġefficient":4336,"âĢ²-":4337,"ĠPI":4338,"Ġspon":4339,"Ġorth":4340,"61":4341,"Ġbran":4342,"sess":4343,"illary":4344,"0001":4345,"Ġpurified":4346,"Ġemployed":4347,"Ġplays":4348,"terminal":4349,"Ġprevention":4350,"Ġnam":4351,"ĠWith":4352,"Ġchannel":4353,"Ġ75":4354,"atitis":4355,"lick":4356,"oot":4357,"Ġdifferential":4358,"ient":4359,"ectomy":4360,"Ġnetworks":4361,"organ":4362,"ifug":4363,"phal":4364,"Ġcontain":4365,"itable":4366,"Ġheat":4367,"Ġsimultaneous":4368,"US":4369,"well":4370,"Ġdespite":4371,"Ġcompleted":4372,"overed":4373,"Ġflex":4374,"OBJECTIVE":4375,"Ġpairs":4376,"Ġbond":4377,"Ġcheck":4378,"Ġdate":4379,"Ġec":4380,"ĠAR":4381,"Ġng":4382,"Ġ33":4383,"Ġreach":4384,"Ġfeature":4385,"umb":4386,"Ġcytokines":4387,"Ġpneum":4388,"Ġpromote":4389,"OL":4390,"Ġretrospec":4391,"Ġliquid":4392,"Rec":4393,"Ġanx":4394,"itud":4395,"Ġplot":4396,"Ġvariance":4397,"Ġmaintained":4398,"rehen":4399,"fusion":4400,"ways":4401,"Ġhepat":4402,"Ġcytoplasm":4403,"Ġcosts":4404,"Ġmild":4405,"HD":4406,"ĠInstit":4407,"urs":4408,"isons":4409,"ÂłÎ¼":4410,"Ġblue":4411,"obic":4412,"ĠPR":4413,"Ġsubject":4414,"bal":4415,"ritis":4416,"Ġfung":4417,"vis":4418,"Ġbehaviour":4419,"ads":4420,"tioned":4421,"Ġreverse":4422,"Ġprediction":4423,"Ġcomparing":4424,"Ġmetastasis":4425,"Ġgenotype":4426,"Ġmelan":4427,"enge":4428,"ĠInde":4429,"Ġagent":4430,"72":4431,"Hz":4432,"Ġinstr":4433,"Im":4434,"bor":4435,"Ġsession":4436,"Ġitems":4437,"ica":4438,"aph":4439,"Ġpass":4440,"03":4441,"mia":4442,"Ġminim":4443,"Ġadjusted":4444,"Ġexplained":4445,"onia":4446,"Ġexternal":4447,"acement":4448,"ises":4449,"71":4450,"ĠWestern":4451,"Ġfin":4452,"Ġrecommended":4453,"Ġdynamic":4454,"UC":4455,"âī":4456,"Ġratios":4457,"Ġgenerate":4458,"Ġantag":4459,"98":4460,"ĠBMI":4461,"Ġlimitations":4462,"Ġpool":4463,"Ġpartial":4464,"akes":4465,"Ġallele":4466,"Ġinvolving":4467,"Ġtrigg":4468,"DR":4469,"Un":4470,"Ġstained":4471,"Ġtargeting":4472,"Ġrelation":4473,"Com":4474,"Ġpeptides":4475,"Ġexplain":4476,"Ġleg":4477,"Ġdeep":4478,"Ġdevice":4479,"Ġequal":4480,"ogenetic":4481,"Ġattem":4482,"Ġped":4483,"Ġantic":4484,"Ġdiffer":4485,"Ġfocused":4486,"side":4487,"ready":4488,"Ġconserved":4489,"Ġjoint":4490,"romet":4491,"control":4492,"Ġven":4493,"Ġreconstruc":4494,"Ġpolic":4495,"tured":4496,"Ġsusp":4497,"GT":4498,"NC":4499,"Ġaltered":4500,"Patients":4501,"Ġresear":4502,"Ġtet":4503,"oglob":4504,"Ġiron":4505,"Ġmovement":4506,"PE":4507,"Ġderiv":4508,"ĠFinally":4509,"Ġaddress":4510,"Ġdeviation":4511,"ocamp":4512,"ĠEach":4513,"tum":4514,"osomal":4515,"Ġspectrum":4516,"everal":4517,"used":4518,"Ġshor":4519,"ĠBl":4520,"ME":4521,"Ġantagon":4522,"Ġplacebo":4523,"Ġcompletely":4524,"Ġeye":4525,"Ġmotif":4526,"oxide":4527,"Ġcenter":4528,"Ġearlier":4529,"acent":4530,"Ġseems":4531,"Ġclusters":4532,"Ġlaser":4533,"Ġenrol":4534,"Ġexcept":4535,"Ġori":4536,"igen":4537,"Ġmolecule":4538,"lin":4539,"Ġextraction":4540,"Ġexpressing":4541,"Ġsperm":4542,"Ġmorphology":4543,"oe":4544,"Ġspectra":4545,"Ġnanopartic":4546,"Ġtargeted":4547,"ĠPre":4548,"Ġselective":4549,"76":4550,"ocation":4551,"Ġmetal":4552,"ignific":4553,"Ġrecurrence":4554,"Ġdegrees":4555,"Ġca":4556,"Fs":4557,"Ġble":4558,"omatic":4559,"Ġgrade":4560,"zing":4561,"Ġsubset":4562,"Ġreceiving":4563,"Ġrad":4564,"tid":4565,"Ġexce":4566,"Ġprobe":4567,"iform":4568,"Ġdisrup":4569,"Ġrobust":4570,"Ġconcept":4571,"Ġmode":4572,"Ġalready":4573,"ades":4574,"tives":4575,"AI":4576,"Ġproxim":4577,"heless":4578,"Ġtraum":4579,"Ġcancers":4580,"Ġcollagen":4581,"Ġown":4582,"rence":4583,"Ġdisplayed":4584,"Ġproviding":4585,"Ġremoval":4586,"Ġliving":4587,"ensive":4588,"Ġreviewed":4589,"Ġmonth":4590,"Ġelim":4591,"tility":4592,"Ġer":4593,"Ġq":4594,"cal":4595,"Ġexperienced":4596,"ollow":4597,"Ġgr":4598,"Ġmethylation":4599,"stead":4600,"Ġalign":4601,"Ġdirection":4602,"84":4603,"kele":4604,"acted":4605,"iltr":4606,"mental":4607,"pects":4608,".)":4609,"wh":4610,"BV":4611,"Ġgastric":4612,"lude":4613,"Ġfusion":4614,"Ġinteract":4615,"ĠED":4616,"mean":4617,"Ġwound":4618,"ĠGermany":4619,"NOVA":4620,"encing":4621,"Ġhemat":4622,"yle":4623,"acet":4624,"Ġindepend":4625,"Ġwa":4626,"Click":4627,"Ac":4628,"Ġinstruc":4629,"asons":4630,"Ġconsent":4631,"Ġcoefficient":4632,"Ġendogenous":4633,"Ġnodes":4634,"uting":4635,"osin":4636,"treatment":4637,"angu":4638,"Ġincludes":4639,"Ġauto":4640,"GS":4641,"Ġdetailed":4642,"Ġinn":4643,"quis":4644,"Ġprognosis":4645,"allel":4646,"Ġnode":4647,"Ġrecognition":4648,"ĠNS":4649,"Ġabundance":4650,"ĠâĪ":4651,"Ġcre":4652,"ĠNO":4653,"Ġfatty":4654,"HS":4655,"Ġml":4656,"ĠUS":4657,"ework":4658,"abor":4659,"Ġreflect":4660,"Ġsummar":4661,"Ġcomplement":4662,"Ġclinically":4663,"oform":4664,"raf":4665,"FS":4666,"Ġreplication":4667,"Ġintestinal":4668,"itively":4669,"Ġcomprehen":4670,"Ġchallenge":4671,"iment":4672,"Ġarth":4673,"oprotein":4674,"Ġsupported":4675,"Ġgrown":4676,"ifications":4677,"Ġrepresentative":4678,"Ġmembranes":4679,"mitte":4680,"Ġfamilies":4681,"III":4682,"Ġhab":4683,"illed":4684,"Ġaspects":4685,"Ġchannels":4686,"Ab":4687,"ĠSince":4688,"Ġask":4689,"ĠGroup":4690,"Ġreson":4691,"Ġworking":4692,"ĠSch":4693,"Ġprobably":4694,"Furthermore":4695,"Ġ2003":4696,"Ġintervals":4697,"Ġmyel":4698,"Ġaimed":4699,"ippocamp":4700,"Ġminimum":4701,"Ġ'":4702,"Ġreplic":4703,"Ġcruc":4704,"Ġachieve":4705,"ĠNational":4706,"ĠSP":4707,"ozyg":4708,"Ġtumour":4709,"ĠMR":4710,"Ġattenu":4711,"Ġenter":4712,"Ġanalysed":4713,"keletal":4714,"Ġmiddle":4715,"Ġsteps":4716,"Ġinstit":4717,"Ġadop":4718,"Ġdecl":4719,"Ġmanufacture":4720,"ods":4721,"Ġchromat":4722,"Ġneutral":4723,"rest":4724,"Ġqual":4725,"dominal":4726,"thal":4727,"Âł4":4728,"dimensional":4729,"bly":4730,"gg":4731,"Ġcommerc":4732,"Ġspl":4733,"lets":4734,"Ġfrequent":4735,"Ġtom":4736,"Ġrepresented":4737,"Ġcentrifug":4738,"ML":4739,"Ġasym":4740,"Ġinfants":4741,"Ġconnec":4742,"char":4743,"Ġcytotox":4744,"Ġsexual":4745,"Ġcategories":4746,"verall":4747,"Ġshape":4748,"Ġvaccine":4749,"Ġtranscriptional":4750,"96":4751,"level":4752,"Ġorient":4753,"Ġaer":4754,"Ġeffectiveness":4755,"Ġpolar":4756,"Ġann":4757,"lyc":4758,"Results":4759,"Ġcolor":4760,"aken":4761,"Ġdiscrim":4762,"Â®":4763,"Îº":4764,"Ġanalog":4765,"ĠDi":4766,"Ġcharacteristic":4767,"04":4768,"Ġcerebral":4769,"83":4770,"When":4771,"load":4772,"Ġhippocamp":4773,"Ġrib":4774,"jection":4775,"Ġtypical":4776,"Ġrandomly":4777,"ided":4778,"neg":4779,"Ġspeed":4780,"Ġcounter":4781,"Ġalb":4782,"IG":4783,"ĠIndi":4784,"Ġves":4785,"Ġseparate":4786,"Ġtake":4787,"Ġinterpret":4788,"ĠcDNA":4789,"Two":4790,"Ġregulated":4791,"Ġexplore":4792,"Ġmaking":4793,"Ġsmo":4794,"ttp":4795,"Ġspinal":4796,"Ġanxiety":4797,"Ġwhose":4798,"Ġcurves":4799,"Ġantioxid":4800,"imen":4801,"Ġdog":4802,"rium":4803,"ĠNor":4804,"oxy":4805,"Ġacquired":4806,"Ġgradi":4807,"Ġhepatic":4808,"Ġ500":4809,"Ġplus":4810,"Ġkine":4811,"Ġmultiv":4812,"Ġhouse":4813,"Ġpredictive":4814,"Ġissues":4815,"81":4816,"Ġsubgroup":4817,"rac":4818,"ĠHz":4819,"Ġtechnology":4820,"ĠÎ¼M":4821,"BA":4822,"Ġpel":4823,"Ġminor":4824,"Ġcomputed":4825,"Ġoutput":4826,"Ġimpl":4827,"Ġschool":4828,"try":4829,"Ġnucleus":4830,"kin":4831,"Ġaccurate":4832,"Ġresearc":4833,"ero":4834,"Ġfig":4835,"infected":4836,"Ġresources":4837,"Ġmedication":4838,"Ġhypothe":4839,"Ġmarg":4840,"ecutive":4841,"ĠInterestingly":4842,"Ġappeared":4843,"Ġadhesion":4844,"Ġensure":4845,"Ġstabil":4846,"Ġdietary":4847,"Ġaffinity":4848,"pm":4849,"Ġcortical":4850,"Ġphenomen":4851,"Ġtools":4852,"hold":4853,"ped":4854,"Ġbenefits":4855,"IS":4856,"Ġplates":4857,"ember":4858,"ologous":4859,"effec":4860,"Ġadequ":4861,"Ġcytos":4862,"ĠÎ¼m":4863,"luores":4864,"Ġprograms":4865,"74":4866,"onomic":4867,"Ġlocalization":4868,"ervical":4869,"amma":4870,"Ġarch":4871,"ignificant":4872,"Ġimpaired":4873,"Ġlatter":4874,"ĠPL":4875,"Ġframework":4876,"tices":4877,"ah":4878,"Ġvel":4879,"Ġligand":4880,"isp":4881,"ĠCF":4882,"ĠFirst":4883,"âĢīmin":4884,"otrop":4885,"taneous":4886,"Ġmanufacturer":4887,"Ġdimension":4888,"entral":4889,"Ġemission":4890,"Ġregular":4891,"Ġprostate":4892,"Ġ**":4893,"Ġsuccessfully":4894,"Ġtrend":4895,"Ġpy":4896,"resent":4897,"Es":4898,"ĠScale":4899,"Ġoccup":4900,"Ġequi":4901,"EA":4902,"ĠFurther":4903,"Ġvitamin":4904,"Ġanat":4905,"With":4906,"Ġcomparisons":4907,"GC":4908,"Ġfilter":4909,"Ġsed":4910,"ĠIR":4911,"Ġhypox":4912,"cribed":4913,"Ġheight":4914,"Ġsubc":4915,"iring":4916,"mediately":4917,"Ġrapidly":4918,"olecular":4919,"ĠTB":4920,"Ġimpairment":4921,"Ġwave":4922,"mo":4923,"Ġgas":4924,"itin":4925,"Ġprimers":4926,"OP":4927,"tingu":4928,"82":4929,"Ġgain":4930,"Ġdisch":4931,"Ġinjected":4932,"Ġtract":4933,"Ġsensor":4934,"Ġchoice":4935,"osen":4936,"Ġnormalized":4937,"ĠResearch":4938,"ĠAdditionally":4939,"Ġinclusion":4940,"ports":4941,"xy":4942,"Ġ34":4943,"Ġethanol":4944,"Ġinvasion":4945,"orrh":4946,"Ġimplementation":4947,"Ġemph":4948,"plate":4949,"TL":4950,"Ġassigned":4951,"ĠSub":4952,"Ph":4953,"Ġintroduced":4954,"Ġhydrogen":4955,"Ġprognostic":4956,"Ġpreparation":4957,"%;":4958,"mittee":4959,"rade":4960,"ĠOf":4961,"97":4962,"Ġalk":4963,"Ġpredominant":4964,"Ġtax":4965,"Ġextrem":4966,"negative":4967,"ĠCV":4968,"lectr":4969,"EGF":4970,"Ġhealthcare":4971,"Ġonce":4972,"Ġdistingu":4973,"Ġbasic":4974,"Ġprolong":4975,"Ġfal":4976,"Ġparallel":4977,"Ġanesthe":4978,"ician":4979,"Ġbelong":4980,"Ġventricular":4981,"exp":4982,"Ġmanus":4983,"Ġoptical":4984,"Ġbehavioral":4985,"Ġfron":4986,"sively":4987,"Ġresistant":4988,"Ġsatisf":4989,"Ġasth":4990,"articip":4991,"Ġye":4992,"axis":4993,"Ġplasmid":4994,"Ġcompl":4995,"Ġoccurrence":4996,"Ġecon":4997,"Ġtransfected":4998,"Ġdeficiency":4999,"Ġamounts":5000,"opathy":5001,"Ġdataset":5002,"))":5003,"Ġtraditional":5004,"Ġstimulus":5005,"gu":5006,"Ġthereby":5007,"Ġadmission":5008,"Ġcrucial":5009,"Ġfish":5010,"Ġgraph":5011,"ĠTGF":5012,"Using":5013,"change":5014,"Ġword":5015,"EV":5016,"son":5017,"Ġnoise":5018,"tial":5019,"ydr":5020,"ordance":5021,"Ġprincip":5022,"Ġpromising":5023,"itone":5024,"Ġirradi":5025,"Ġshift":5026,"Ġtypically":5027,"ills":5028,"Ġabsorption":5029,"Ġneurolog":5030,"ime":5031,"Ġoil":5032,"Ġsuitable":5033,"ÎºB":5034,"activation":5035,"venous":5036,"Ġseem":5037,"ervation":5038,"Ġfetal":5039,"oded":5040,"Ġpathogenesis":5041,"Ġprospective":5042,"rab":5043,"Ġsigns":5044,"Ġintermediate":5045,"Ġdiabetic":5046,"Ġsubsequently":5047,"fl":5048,"atter":5049,"Ġviability":5050,"Ġillness":5051,"DA":5052,"analysis":5053,"uary":5054,"totic":5055,"Ġsuperior":5056,"Ġalterations":5057,"Ġsubjected":5058,"Âł%":5059,"Ġrecombinant":5060,"po":5061,"Ġmorb":5062,"Ġexisting":5063,"ĠPer":5064,"ohist":5065,"Ġtranscripts":5066,"Ġcreat":5067,"anted":5068,"Ġdry":5069,"Ġfibrobl":5070,"Ġmyocardial":5071,"portun":5072,"Data":5073,"era":5074,"Ġtheory":5075,"Ġfragment":5076,"ema":5077,"Ġmotion":5078,"Ġland":5079,"Ġ2002":5080,"Ġcommunication":5081,"ĠReg":5082,"Ġaccel":5083,"Ġcycles":5084,"93":5085,"Ġovari":5086,"Ġsuppress":5087,"Ġtit":5088,"..":5089,"Ġdraw":5090,"ulatory":5091,"Ġaxis":5092,"Ġunclear":5093,"ĠMT":5094,"Ġcorrelations":5095,"entical":5096,"Ġnanoparticles":5097,"Ġarterial":5098,"utaneous":5099,"Ġbreak":5100,"Ġlist":5101,"94":5102,"Ġteam":5103,"istant":5104,"bre":5105,"osome":5106,"Ġcontribution":5107,"Ġhormone":5108,"gram":5109,"Ġultras":5110,"rogen":5111,"Ġsolutions":5112,"Pre":5113,"ĠDe":5114,"ĠAccording":5115,"Ġ65":5116,"Ġorganic":5117,"ĠUnited":5118,"Ġsettings":5119,"Ġexact":5120,"SR":5121,"ĠPM":5122,"Ġdefects":5123,"Ġspontaneous":5124,"LP":5125,"oll":5126,"Ġthought":5127,"ensus":5128,"Ġ38":5129,"Ġtoxic":5130,"Ġspread":5131,"odyn":5132,"Ġexpect":5133,"Ġseparated":5134,"Ġmanuscript":5135,"asia":5136,"Ġclosely":5137,"Ġphosphate":5138,"Ġindependently":5139,"Ġbars":5140,"Ġrh":5141,"ĠUK":5142,"ernat":5143,"Ġparents":5144,"ĠCons":5145,"mi":5146,"Ġprimarily":5147,"Ġinvasive":5148,"Ġangle":5149,"Ġswit":5150,"ĠROS":5151,"Ġcervical":5152,"luding":5153,"Ġimmediately":5154,"Ġsat":5155,"Ġmaintain":5156,"Ġperiods":5157,"Ġperme":5158,"Ġbiopsy":5159,"Co":5160,"Ġerrors":5161,"roscopy":5162,"Ġrabb":5163,"arr":5164,"tenance":5165,"Ġdiverse":5166,"Ġautophag":5167,"Ġmalignant":5168,"CN":5169,"Ġdup":5170,"Ġcompet":5171,"Ġpathological":5172,"hing":5173,"Âł<":5174,"Ġopportun":5175,"Ġresection":5176,"Ġblack":5177,"Ġfore":5178,"Ġencoding":5179,"Ġalways":5180,"Ġranging":5181,"ĠHospital":5182,"Ġoverexpression":5183,"Thus":5184,"Ġrecruit":5185,"Ġannot":5186,"ĠBoth":5187,"Ġvaried":5188,"Me":5189,"Ġoperation":5190,"ogens":5191,"Ġsaline":5192,"Ġdy":5193,"Ġvariant":5194,"Ġsizes":5195,"Ġprotection":5196,"Ġattributed":5197,"Ġdistributed":5198,"Ġprotective":5199,"ori":5200,"days":5201,"Ġrequ":5202,"Ġplat":5203,"acc":5204,"ĠLPS":5205,"ĠME":5206,"Ġclinic":5207,"Ġfrequencies":5208,"mark":5209,"Ġtrue":5210,"Ġdevelopmental":5211,"Ġsubstantial":5212,"patient":5213,"Ġ42":5214,"ION":5215,"Âłyears":5216,"Ġpositively":5217,"Ġpancreatic":5218,"olytic":5219,"Ġdeple":5220,"Ġvalidated":5221,"Ġmis":5222,"MB":5223,"ĠAF":5224,"Ġsimulation":5225,"ĠCP":5226,"Ġonto":5227,"ĠBy":5228,"ĠTwo":5229,"ĠNot":5230,"Ġtail":5231,"ĠHS":5232,"avage":5233,"Ġmedicine":5234,"Ġrecip":5235,"YP":5236,"Ġelectroph":5237,"Ġfall":5238,"Ġsurround":5239,"Ġlargely":5240,"sm":5241,"Ġ96":5242,"months":5243,"Ġinitiation":5244,"Ġlowest":5245,"92":5246,"Ġmove":5247,"Ġdepth":5248,"Ġmeasuring":5249,"Ġsusceptibility":5250,"Ġlact":5251,"HT":5252,"/âĪĴ":5253,"Ġthor":5254,"Ġlibr":5255,"ronch":5256,"Ġnucleotide":5257,"Ġregulate":5258,"Ġneon":5259,"Ġtree":5260,"Ġnational":5261,"LS":5262,"riched":5263,"Ġburden":5264,"dep":5265,"Ġchosen":5266,"ĠMedical":5267,"Ġtolerance":5268,"Ġnitrogen":5269,"hal":5270,"Ġplan":5271,"ruc":5272,"Is":5273,"Of":5274,"Ġservice":5275,"position":5276,"-(":5277,"enari":5278,"Ġdecreases":5279,"erior":5280,"Ġdisplay":5281,"Ġinfarc":5282,"Ġadjust":5283,"Ġextracts":5284,"encies":5285,"tor":5286,"asal":5287,"Ġidentical":5288,"Ġinfiltr":5289,"Ġantim":5290,"arrow":5291,"Ġreached":5292,"Ġextensive":5293,"ips":5294,"Ġdeletion":5295,"Ġstri":5296,"Ġtransplantation":5297,"Ġloop":5298,"Ġprecurs":5299,"Ġsynthesized":5300,"âĢī1":5301,"get":5302,"ucid":5303,"ubiqu":5304,"Ġinformed":5305,"Ġdop":5306,"adder":5307,"Âłmin":5308,"Ġgerm":5309,"max":5310,"olip":5311,"Ġabnormalities":5312,"mm":5313,"sw":5314,"Ġextended":5315,"Ġmethyl":5316,"Ġactin":5317,"helium":5318,"DP":5319,"ump":5320,"Ġdownstream":5321,"Ġmicrobi":5322,"Ġsem":5323,"Ġgastro":5324,"ng":5325,"Ġaud":5326,"ĠUV":5327,"ĠSNPs":5328,"night":5329,"ĠHF":5330,"Ġkit":5331,"Ġfresh":5332,"Ġreasons":5333,"Ġquantified":5334,"Ġ~":5335,"Ġwind":5336,"derly":5337,"Ġ2001":5338,"Ġpositions":5339,"Ġmatter":5340,"Ġmaintenance":5341,"Ġrank":5342,"Ġjust":5343,"MC":5344,"Ġwrit":5345,"Ġgrowing":5346,"ese":5347,"Ġdors":5348,"ĠAb":5349,"ĠComp":5350,"Ġbalance":5351,"Ġcomput":5352,"Ġresearchers":5353,"ĠAnal":5354,"Ġfeas":5355,"Ca":5356,"Ġpresentation":5357,"with":5358,"ĠDec":5359,"rug":5360,"Ġdrop":5361,"Ġleaf":5362,"Ġtransferred":5363,"Ġsegment":5364,"amb":5365,"Ġvariations":5366,"Ġmetabolites":5367,"Ġfibrosis":5368,"oked":5369,"ospitals":5370,"scale":5371,"Ġstored":5372,"Ġmap":5373,"Ġvolt":5374,"Ġcytokine":5375,"Ġatom":5376,"Ġtwice":5377,"Ġyeast":5378,"HP":5379,"Ġads":5380,"ansion":5381,"Ġmagnitude":5382,"ĠHD":5383,"inese":5384,"Ġdevices":5385,"artment":5386,"ows":5387,"ĠPK":5388,"Ġpal":5389,"Ġschem":5390,"Ġradical":5391,"Ġindirect":5392,"Ġfed":5393,"ĠSystem":5394,"Ġabdominal":5395,"Ġbehaviors":5396,"erated":5397,"Ġsimulations":5398,"Ġter":5399,"ci":5400,"methyl":5401,"Ġstart":5402,"Ġagon":5403,"olute":5404,"Ġcoverage":5405,"luor":5406,"Ġtherapies":5407,"tious":5408,"Ġmodification":5409,"Ġconsisted":5410,"orage":5411,"ĠOther":5412,"Ġreads":5413,"Ġembryos":5414,"Ġovarian":5415,"Ġsupernat":5416,"Ġgrad":5417,"ancies":5418,"Ġlangu":5419,"Ġcord":5420,"Ġfragments":5421,"Ġresidual":5422,"Ġ55":5423,"roscopic":5424,"otypic":5425,"rs":5426,"Ġdonor":5427,"Ġresonance":5428,"Ġaver":5429,"Ġstimulated":5430,"Ġintern":5431,"ĠGFP":5432,"Ġpseud":5433,"Ġidenti":5434,"month":5435,"where":5436,"Ġmeet":5437,"Ġaccomp":5438,"Ġonc":5439,"rane":5440,"no":5441,"Ġarm":5442,"ĠMe":5443,"Ġbeneficial":5444,"Ġmetastatic":5445,"Ġdisp":5446,"Ġplatform":5447,"Ġions":5448,"Ġcategor":5449,"ament":5450,"ĠHA":5451,"Ġasthma":5452,"ners":5453,"Ġpolyp":5454,"ls":5455,"Ġtheore":5456,"alpha":5457,"Ġstaff":5458,"ĠmiRNAs":5459,"aterial":5460,"oxyl":5461,"generation":5462,"Ġheterogeneity":5463,"ĠSimilarly":5464,"overn":5465,"Ġadvantage":5466,"Ġissue":5467,"Ġmostly":5468,"Ġtaking":5469,"Ġcandidate":5470,"Ġdistal":5471,"Ġepis":5472,"ĠmiRNA":5473,"bp":5474,"Ġaware":5475,"Ġreferred":5476,"Ġtube":5477,"inus":5478,"ĠAmong":5479,"ĠNK":5480,"Ġranged":5481,"ging":5482,"Ġviruses":5483,"Ġmicroscope":5484,"LISA":5485,"Da":5486,"Ġconstructed":5487,"Ġchanged":5488,"quences":5489,"Ġanalyze":5490,"Ġthermal":5491,"Ġtable":5492,"Âłmg":5493,"Ġcy":5494,"Ġpartially":5495,"Ġbul":5496,"ĠOr":5497,"Ġamplitude":5498,"enza":5499,"Ġneutroph":5500,"vascular":5501,"ĠANOVA":5502,"ban":5503,"Ġfeedback":5504,"ĠBe":5505,"ĠLi":5506,"activated":5507,"theless":5508,"ocity":5509,"Ġdepending":5510,"Ġmorbidity":5511,"NK":5512,"hyde":5513,"91":5514,"ĠSw":5515,"isher":5516,"Ġminimal":5517,"Ġure":5518,"Ġcalled":5519,"Ġsequ":5520,"Ġexpress":5521,"ectors":5522,"dehyde":5523,"Ġperceived":5524,"Ġaffects":5525,"Ġrecognized":5526,"Ġinoc":5527,"articipants":5528,"atch":5529,"ayer":5530,"Ġdetermination":5531,"Ġhistological":5532,"Ġreliable":5533,"Ġfeeding":5534,"chym":5535,"Ġcarry":5536,"opic":5537,"Re":5538,"Ġoxidation":5539,"ottom":5540,"Ġrecording":5541,"Ġexpansion":5542,"Ġdiver":5543,"Ġpersonal":5544,"ĠCd":5545,"ĠBecause":5546,"Ġmilk":5547,"Ġretrospective":5548,"quisition":5549,"Ġ150":5550,"icrobial":5551,"apse":5552,"Ġhaem":5553,"ĠChinese":5554,"Ġrecords":5555,"Ġantibiotic":5556,"Ġ#":5557,"Ġce":5558,"sian":5559,"Ġsimilarity":5560,"Ġinfluenced":5561,"Ġurine":5562,"Ġgest":5563,"illin":5564,"Ġthyroid":5565,"Ġclon":5566,"rent":5567,"Ġten":5568,"ache":5569,"Ġreturn":5570,"Ġdetails":5571,"Ġregen":5572,"Ġgoal":5573,"Ġpossibly":5574,"Ġreporting":5575,"Ġscenari":5576,"ethods":5577,"Ġcereb":5578,"Ġveh":5579,"ĠThen":5580,"ĠTechn":5581,"Ġcathe":5582,"Ġeyes":5583,"ometer":5584,"AF":5585,"06":5586,"acing":5587,"Ġsummary":5588,"Both":5589,"Ġexplan":5590,"ĠPr":5591,"ĠQu":5592,"rie":5593,"aspase":5594,"Ġelderly":5595,"Ġundergoing":5596,"Ġrs":5597,"Ġtrack":5598,"Ġneurop":5599,"Ġhospitals":5600,"Ġdark":5601,"Ġgive":5602,"Ġgradient":5603,"Ġharv":5604,"olysis":5605,"ĠHP":5606,"Ġfluor":5607,"unctional":5608,"Ġphysicians":5609,"Ġorganization":5610,"elihood":5611,"ident":5612,"Ġdominant":5613,"Ġfacilitate":5614,"Ġneigh":5615,"Moreover":5616,"risk":5617,"weight":5618,"cents":5619,"ĠCells":5620,"Ġurinary":5621,"ifer":5622,"ocar":5623,"Ġcomprehensive":5624,"Ġ%":5625,"imer":5626,"Ġelucid":5627,"Ġassembly":5628,"value":5629,"Ġmob":5630,"arged":5631,"acchar":5632,"rand":5633,"âĢīÂ°":5634,"Ġreceive":5635,"Ġana":5636,"Ġgenotypes":5637,"okine":5638,"zation":5639,"igible":5640,"antly":5641,"ĠLC":5642,"ĠOS":5643,"Ġinduces":5644,"cat":5645,"tra":5646,"Ġpossess":5647,"Ġeffectively":5648,"Ġhydroph":5649,"Ġmorphological":5650,"nt":5651,"Ġasked":5652,"Ġvessels":5653,"Ġloci":5654,"SO":5655,"Ġben":5656,"lycer":5657,"ermal":5658,"Rs":5659,"Ġ39":5660,"Ġcircum":5661,"MG":5662,"Ġdiffusion":5663,"Ġtraits":5664,"Ġmarrow":5665,"ociation":5666,"Ġelement":5667,"ĠGC":5668,"ders":5669,"Ġplastic":5670,"Ġantioxidant":5671,"Ġeasily":5672,"Ap":5673,"ĠStates":5674,"Ġpurch":5675,"Ġbegin":5676,"ĠNew":5677,"Ġinitially":5678,"Ġavailability":5679,"eter":5680,"Ġ300":5681,"Ġspectromet":5682,"Ġvolun":5683,"Ġconstrain":5684,"Ġscan":5685,"Ġfailed":5686,"ollowing":5687,"beta":5688,"henyl":5689,"sub":5690,"âĢīÃĹ":5691,"tention":5692,"Ġcomposed":5693,"Ġroutine":5694,"Ġexplored":5695,"itudinal":5696,"Ġegg":5697,"Ġdelay":5698,"ened":5699,"ana":5700,"Ġconjug":5701,"Ġmalaria":5702,"Ġpathogen":5703,"Ġcoding":5704,"ĠPatients":5705,"MO":5706,"Ġtasks":5707,"acer":5708,"Ġvelocity":5709,"otes":5710,"Ġantibiotics":5711,"Ġbleeding":5712,"versely":5713,"rown":5714,"eryth":5715,"Ġextension":5716,"Ġhum":5717,"Ġnine":5718,"ĠCB":5719,"adj":5720,"org":5721,"Ġconform":5722,"inking":5723,"ĠAss":5724,"Ġmature":5725,"ĠCL":5726,"ada":5727,"Ġcham":5728,"ĠSpec":5729,"Ġusers":5730,"Ġparticipant":5731,"containing":5732,"gue":5733,"ĠTLR":5734,"ĠAmerican":5735,"PU":5736,"Ġkg":5737,"Ġserious":5738,"Ġrespective":5739,"ĠTR":5740,"uous":5741,"Ġisoform":5742,"tub":5743,"vas":5744,"Ġdocumented":5745,"Ġonline":5746,"ĠsiRNA":5747,"Ġfracture":5748,"Ġworkers":5749,"Ġamplification":5750,"Ġbiomarkers":5751,"ontal":5752,"Ġcommercial":5753,"Ġty":5754,"Ġpractices":5755,"Ġchromatography":5756,"Ġstarting":5757,"nc":5758,"ĠIs":5759,"Ġdecline":5760,"Ġintravenous":5761,"Ġloading":5762,"umab":5763,"Ġbiochemical":5764,"ecting":5765,"Ġsuppression":5766,"Among":5767,"Ġprimer":5768,"Ġconversion":5769,"Ġacquisition":5770,"ĠID":5771,"azole":5772,"ares":5773,"Ġdefic":5774,"Ġsubstrates":5775,"ĠMg":5776,"ĠMI":5777,"Ġnote":5778,"Ġnumerous":5779,"Ġefforts":5780,"raft":5781,"Ġrise":5782,"Ġclim":5783,"Ġregist":5784,"iotic":5785,"Ġchallenges":5786,"ued":5787,"Ġface":5788,"Ġprem":5789,"Ġleaves":5790,"actin":5791,"Ġmicrobial":5792,"Ġoccurring":5793,"Ġpsychological":5794,"water":5795,"Ġnative":5796,"uments":5797,"EF":5798,"Âł5":5799,"Ġlayers":5800,"odon":5801,"Ġimplemented":5802,"Ġartif":5803,"wenty":5804,"itary":5805,"Ġproximal":5806,"ĠSouth":5807,"ĠBr":5808,"Ġlabeled":5809,"Ġbuil":5810,"ellow":5811,"ercul":5812,"Vs":5813,"Ġinstead":5814,"ostasis":5815,"Ġinterface":5816,"otin":5817,"ives":5818,"fort":5819,"Ġhard":5820,"resistant":5821,"Ġcommunities":5822,"urine":5823,"insic":5824,"Ġstorage":5825,"Ġintegrated":5826,"Ġovernight":5827,"idal":5828,"osystem":5829,"anth":5830,"Ġparts":5831,"Ġmillion":5832,"Ġconsecutive":5833,"Ġultrasound":5834,"Ġfluorescent":5835,"Ġconstruct":5836,"osynthesis":5837,"Ġlob":5838,"Ġequivalent":5839,"Ġpotent":5840,"Ġsubunit":5841,"Ms":5842,"atif":5843,"ĠMP":5844,"ĠRep":5845,"Ġtrauma":5846,"Ġprefer":5847,"During":5848,"ester":5849,"ĠMAP":5850,"Ġmentioned":5851,"ĠZn":5852,"Ġmonitored":5853,"Ġrecruitment":5854,"ĠDuring":5855,"ĠLV":5856,"Ġfiber":5857,"Ġrecruited":5858,"ĠIndeed":5859,"onin":5860,"izations":5861,"Ġfibers":5862,"AK":5863,"Ġbox":5864,"Ns":5865,"vation":5866,"Ġdest":5867,"Ġfavor":5868,"zard":5869,"Ġsensory":5870,"amination":5871,"Ġbarrier":5872,"Ġ44":5873,"Ġidentity":5874,"Ag":5875,"Ġcounts":5876,"Ġcorrection":5877,"Ġshorter":5878,"Ġadjacent":5879,"FT":5880,"Ġcover":5881,"Ġcav":5882,"Ġdend":5883,"AMP":5884,"ĠDep":5885,"Ġintact":5886,"Ġconflic":5887,"cler":5888,"Ġseparation":5889,"Ġcaps":5890,"Ġenrolled":5891,"BR":5892,"Ġtransformation":5893,"ĠCK":5894,"Ġkind":5895,"Ġyou":5896,"Ġadolescents":5897,"ĠSur":5898,"Ġabsolute":5899,"Ġnecrosis":5900,"ĠMMP":5901,"Ġsplic":5902,"Ġprotocols":5903,"Ġarticles":5904,"ĠUsing":5905,"Ġexcell":5906,"vate":5907,"ĠCu":5908,"Ġequation":5909,"Ġalleles":5910,"Ġcrystal":5911,"Ġuncertain":5912,"Ġsmooth":5913,"Ġarrow":5914,"Ġdepends":5915,"TE":5916,"orec":5917,"Ġcharge":5918,"ĠPS":5919,"enes":5920,"ĠSL":5921,"Ġneck":5922,"07":5923,"Ġoxide":5924,"Ġground":5925,"Therefore":5926,"ĠNP":5927,"Ġkne":5928,"Ġclasses":5929,"Ġenrich":5930,"Ġcis":5931,"Ġren":5932,"Ġsynthetic":5933,"Ġemotional":5934,"Ġclar":5935,"Ġqualit":5936,"itor":5937,"Ġbronch":5938,"Ġprolonged":5939,"phase":5940,"Ġverte":5941,"Ġepidemi":5942,"Ġcreated":5943,"ister":5944,"Ġthin":5945,"Ġrespondents":5946,"Ġmach":5947,"Ġattr":5948,"Ġwalk":5949,"Ġ41":5950,"Ġorgans":5951,"Ġtemperatures":5952,"Ġdeaths":5953,"Ġlanguage":5954,"Ġâī¤":5955,"luorescence":5956,"ĠSome":5957,"illing":5958,"âĢīmg":5959,"faces":5960,"Ġsubt":5961,"Ġcountry":5962,"Ġaffecting":5963,"Bs":5964,"ovine":5965,"Ġcomputer":5966,"Ġarray":5967,"Ġretinal":5968,"Ġphenotypes":5969,"Ġlogistic":5970,"ĠBP":5971,"Ġpathology":5972,"ectin":5973,"Ġimproving":5974,"Ġreleased":5975,"ĠEuropean":5976,"Ġnerv":5977,"500":5978,"sin":5979,"Ġech":5980,"uries":5981,"ĠPol":5982,"Ġstandardi":5983,"ĠPE":5984,"Ġtomography":5985,"Ġreag":5986,"Ġnegatively":5987,"acr":5988,"Ġcompart":5989,"sectional":5990,"Ġdelayed":5991,"ĠÎ³":5992,"Ġcompeti":5993,"Ġmitochondria":5994,"Ġrot":5995,"Ġvalidation":5996,"ensitive":5997,"utional":5998,"Ġorganisms":5999,"erences":6000,"Ġinvolves":6001,"Ġple":6002,"Ġwar":6003,"ĠHCC":6004,"Ġ2018":6005,"Ġubiqu":6006,"eptide":6007,"Ġhor":6008,"ĠSecond":6009,"Ġ43":6010,"Ġuntreated":6011,"Ġutilized":6012,"Ġcategory":6013,"Med":6014,"riefly":6015,"Ġelic":6016,"ulti":6017,"08":6018,"Ġproject":6019,"ibration":6020,"Ġinteresting":6021,"enic":6022,"Ġtranslation":6023,"ĠBased":6024,"ifying":6025,"aline":6026,"Ġsupplemented":6027,"Ġpolicy":6028,"Ġdifferentially":6029,"abilities":6030,"gal":6031,"Ġ46":6032,"Ġsafe":6033,"Ġshared":6034,"atistical":6035,"oline":6036,"Ġextra":6037,"Ġdogs":6038,"Ġscaff":6039,"Ġmanifest":6040,"ycl":6041,"Ġodds":6042,"Ġbiof":6043,"Ġparticle":6044,"Ġ;":6045,"Ġpeaks":6046,"âĢĬ0":6047,"Ġtryp":6048,"ĠÃ":6049,"ensities":6050,"version":6051,"Ġsegments":6052,"Ġexcellent":6053,"Ġidentifying":6054,"Ġnuclei":6055,"Ġlum":6056,"ochemistry":6057,"Ġsimultaneously":6058,"Ġparticipate":6059,"Ġmissing":6060,"Ġglass":6061,"Ġhousehold":6062,"Ġputative":6063,"ming":6064,"ĠCM":6065,"DI":6066,"Ġlocations":6067,"Ġnod":6068,"ĠSer":6069,"Ġhapl":6070,"olin":6071,"ĠAS":6072,"Ġfractions":6073,"jections":6074,"CE":6075,"ĠSR":6076,"Ġimmunohist":6077,"Ġreactive":6078,"Ġaccoun":6079,"Ġpneumonia":6080,"evertheless":6081,"itory":6082,"ĠIntern":6083,"Ġelectronic":6084,"Ġunderstood":6085,"];":6086,"Ġinfluenza":6087,"Ġreliability":6088,"Ġtransgenic":6089,"ĠWh":6090,"Ġobstruc":6091,"Ġimplications":6092,"Ġlocus":6093,"09":6094,"Ġprogen":6095,"na":6096,"enetic":6097,"Ġrecurrent":6098,"Ġlive":6099,"Ġmatched":6100,"Ġalignment":6101,"Ġvoltage":6102,"mg":6103,"ĠHere":6104,"Ġconsidering":6105,"Ġurban":6106,"Ġrepeat":6107,"Wh":6108,"Ġregional":6109,"Ġdiscussion":6110,"Ġhabit":6111,"ipl":6112,"ĠInstitute":6113,"Ġfold":6114,"Ġcultiv":6115,"Ġintegration":6116,"Ġconsists":6117,"Ġsuff":6118,"Ġsalt":6119,"Ġmultivariate":6120,"Ġeconomic":6121,"ĠCan":6122,"orectal":6123,"entry":6124,"Ġaccordance":6125,"ley":6126,"omat":6127,"ĠMO":6128,"oblast":6129,"Ġpathogens":6130,"Ġitself":6131,"Ġcrystall":6132,"Ġventi":6133,"Ġconsequences":6134,"Ġduplic":6135,"Ġring":6136,"Ġserve":6137,"Ġterminal":6138,"Ġadherence":6139,"Ġexchange":6140,"Ġdistributions":6141,"Ġinterpretation":6142,"Ġnewly":6143,"Ġfields":6144,"Finally":6145,"ĠSA":6146,"Ġlikelihood":6147,"Ġsurfaces":6148,"Ġadequate":6149,"Ġenriched":6150,"ĠMod":6151,"iver":6152,"Ġvul":6153,"ĠEth":6154,"Ġpolymerase":6155,"Ġlocalized":6156,"itoneal":6157,"Ġspe":6158,"Ġmodifications":6159,"Ġphases":6160,"Ġrisks":6161,"Ġgraft":6162,"ococcus":6163,"gluc":6164,"ĠCX":6165,"Ġtransient":6166,"aid":6167,"ĠJan":6168,"Ġlargest":6169,"ĠNH":6170,"Ġvolum":6171,"Ġcapable":6172,"Ġactual":6173,"Ġoutside":6174,"Ġlymphocytes":6175,"FC":6176,"ozygous":6177,"ĠSS":6178,"cor":6179,"athe":6180,"ancing":6181,"Ġinstance":6182,"ĠMost":6183,"pi":6184,"Ġpla":6185,"-,":6186,"uth":6187,"ĠMin":6188,"oclonal":6189,"ont":6190,"Ġgenomes":6191,"By":6192,"Ġbey":6193,"part":6194,"data":6195,"Ġmakes":6196,"Ġrecommendations":6197,"Ġbeyond":6198,"Comp":6199,"inger":6200,"state":6201,"Ġzone":6202,"ducing":6203,"ĠDR":6204,"Ġisolation":6205,"While":6206,"ulus":6207,"TC":6208,"itus":6209,"Ġconsensus":6210,"Ġhighlight":6211,"oglobin":6212,"aldehyde":6213,"Ġms":6214,"Ġathe":6215,"ping":6216,"ano":6217,"Ġobvious":6218,"Ġconsisting":6219,"Ġyounger":6220,"Ġfalse":6221,"Ġaortic":6222,"Ġvarying":6223,"Ġvehicle":6224,"Ġlongitudinal":6225,"Ġrelax":6226,"ĠSup":6227,"Ġretrie":6228,"ota":6229,"Ġdatasets":6230,"ĠPV":6231,"zer":6232,"Ġeryth":6233,"Ġvas":6234,"Ġnervous":6235,"Ġmapping":6236,"ĠSm":6237,"protein":6238,"Ġparticipation":6239,"urally":6240,"He":6241,"Ġrevers":6242,"fficients":6243,"Ġabsorb":6244,"Ġassumed":6245,"Ġantimicrobial":6246,"icles":6247,"aching":6248,"Ġdefine":6249,"Ġallowing":6250,"ĠNe":6251,"Ġsn":6252,"Ġvaccination":6253,"ĠNaCl":6254,"oscopy":6255,"Ġgovern":6256,"Ġastro":6257,"Ġrestricted":6258,"Ġnearly":6259,"ĠCal":6260,"Ġmuscles":6261,"Ġ1000":6262,"Ġprogress":6263,"Ġhydroly":6264,"men":6265,"Ġpulse":6266,"Ġplatelet":6267,"www":6268,"Ġautophagy":6269,"Ġov":6270,"ĠÂµg":6271,"Ds":6272,"ĠCar":6273,"Ġconclude":6274,"ĠELISA":6275,"Ġreduces":6276,"ĠPP":6277,"Ġimplicated":6278,"intestinal":6279,"cessive":6280,"Ġscaffold":6281,"ĠAA":6282,"Ġmanip":6283,"ĠTrans":6284,"ĠRP":6285,"Ġphenomenon":6286,"ĠRh":6287,"Ġ1999":6288,"Ġvalidity":6289,"MRI":6290,"Ġoppos":6291,"Ġinjuries":6292,"Ġmicros":6293,"Ġreconstruction":6294,"Ġdischarge":6295,"Ġdental":6296,"ĠSNP":6297,"rose":6298,"ĠSEM":6299,"Ġappearance":6300,"Ġnurses":6301,"Ġrural":6302,"erculosis":6303,"Ġmim":6304,"Ġstop":6305,"ĠâĪ¼":6306,"Ġgap":6307,"Ġhen":6308,"Ġengine":6309,"ĠNMR":6310,"Ġmammalian":6311,"Ġ56":6312,"Ġcolle":6313,"Ġaging":6314,"linked":6315,"istance":6316,"ĠSE":6317,"Ġchromatin":6318,"Ġcoupled":6319,"ĠCr":6320,"Ġnic":6321,"Ġconcluded":6322,"Ġ120":6323,"Ġcontrolling":6324,"Ġforward":6325,"Ġsoluble":6326,"ĠAlso":6327,"Ġmothers":6328,"xin":6329,"Ġnone":6330,"Ġskeletal":6331,"Ġscientific":6332,"Ġscanning":6333,"Ġpurchased":6334,"Ġpredictors":6335,"ologists":6336,"ĠVEGF":6337,"Ġ52":6338,"Ġtoo":6339,"ĠAdditional":6340,"Ġcoefficients":6341,"Ġimmunos":6342,"Ġzero":6343,"ĠCommittee":6344,"vo":6345,"Ġfores":6346,"illance":6347,"osine":6348,"chang":6349,"Ġbilateral":6350,"ulum":6351,"Ġgut":6352,"Ġenhancement":6353,"'-":6354,"En":6355,"Ġinfusion":6356,"IM":6357,"Ġdescri":6358,"Ġparent":6359,"andard":6360,"Ġpresents":6361,"ilep":6362,"Ġdisturb":6363,"Ġregulating":6364,"ĠnM":6365,"Ġvag":6366,"gens":6367,"kt":6368,"Ġshock":6369,"Ġprogressive":6370,"Ġexperiences":6371,"Ġabundant":6372,"amples":6373,"Despite":6374,"dose":6375,"Ġcomorb":6376,"Ġemergency":6377,"Ġpropose":6378,"Ġsimulated":6379,"Ġveget":6380,"Ġsocio":6381,"Ar":6382,"Ġbp":6383,"chron":6384,"ying":6385,"Ġpure":6386,"anine":6387,"Ġmodeling":6388,"Ġmaximal":6389,"apped":6390,"NH":6391,"Ġmodulation":6392,"Ġassessing":6393,"OSE":6394,"PSS":6395,"Ġmetastases":6396,"mal":6397,"ĠSuch":6398,"Ġquantification":6399,"Ġdual":6400,"ĠES":6401,"oscopic":6402,"ĠAustr":6403,"ĠSo":6404,"Ġcirculating":6405,"Ġskills":6406,"Ġvein":6407,"vity":6408,"Ġbovine":6409,"Ġcovari":6410,"Ġinsu":6411,"Ġprocessed":6412,"Ġansw":6413,"usions":6414,"ovirus":6415,"otides":6416,"Ġcoupling":6417,"Based":6418,"UT":6419,"Ġtun":6420,"Ġones":6421,"Ġbeam":6422,"Ġrepresenting":6423,"Ġinstructions":6424,"Ġethn":6425,"Ġtext":6426,"Ġoffer":6427,"Ġnever":6428,"]).":6429,"icient":6430,"Ġfixation":6431,"atum":6432,"Ġsynaptic":6433,"Ġdistinguish":6434,"Ġperception":6435,"Ġgli":6436,"Ġmeaning":6437,"ĠCor":6438,"Ġexpand":6439,"ĠÎ´":6440,"Ġdecreasing":6441,"Ġ250":6442,"Ġresidue":6443,"Ġconsiderable":6444,"UN":6445,"ÂłS":6446,"Ġcharacterization":6447,"Ġsupporting":6448,"Ġneurological":6449,"fam":6450,"ito":6451,"Ġcold":6452,"Ġinstrument":6453,"Ġpersons":6454,"Ġauthor":6455,"Ġsituation":6456,"Ġdefect":6457,"Ġwestern":6458,"Ġstarted":6459,"Ġaccompan":6460,"ĠCC":6461,"ipitation":6462,"Ġcatalytic":6463,"scill":6464,"Ġround":6465,"Ġcaspase":6466,"ĠMETHODS":6467,"Ġtheoretical":6468,"ĠSDS":6469,"key":6470,"Ġphylogenetic":6471,"Ġelectrode":6472,"ĠMore":6473,"Ġdefinition":6474,"lands":6475,"rosine":6476,"Ġimmunity":6477,"Ġevident":6478,"Ġenrichment":6479,"--":6480,"ĠAB":6481,"iO":6482,"inine":6483,"Di":6484,"Sigma":6485,"ĠNC":6486,"Ġcleavage":6487,"Ġconduct":6488,"Ġischemic":6489,"ocarcin":6490,"ontin":6491,"actic":6492,"Ġsurrounding":6493,"Ġuter":6494,"sts":6495,"come":6496,"ellar":6497,"IA":6498,"Ġcomposite":6499,"Ġligands":6500,"queous":6501,"Ġcontributed":6502,"ysts":6503,"Ġ47":6504,"Ġamplified":6505,"Ġlap":6506,"Ġdiluted":6507,"oration":6508,"Ġplots":6509,"Ġmonoclonal":6510,"Ġpediatric":6511,"Ġdorsal":6512,"alling":6513,"Ġbecame":6514,"Ġlost":6515,"entia":6516,"Ġbladder":6517,"Ġcycl":6518,"Ġknockdown":6519,"Ġestimation":6520,"Ġcontinued":6521,"Ġknee":6522,"elled":6523,"PAR":6524,"Ġstratif":6525,"Ġfilm":6526,"Ġconfig":6527,"Ġwritten":6528,"Ġentry":6529,"ĠHPV":6530,")/":6531,"assive":6532,"Ġhealing":6533,"ĠBD":6534,"Ġinvestigations":6535,"Ġtranspor":6536,"ferase":6537,"Ġseparately":6538,"Ġclustering":6539,"Ġorientation":6540,"vitrogen":6541,"ÂłÂ±":6542,"Ġsuspension":6543,"Ġtel":6544,"Ġcompens":6545,"Ġblocked":6546,"flow":6547,"Ġdependence":6548,"Ġrabbit":6549,"Ġinhibits":6550,"Ġlacking":6551,"ranial":6552,"Ġretention":6553,"Ġsuppressed":6554,"plete":6555,"Ġuniform":6556,"Ġdesi":6557,"Ġexcess":6558,"Since":6559,"angi":6560,"Ġupregulated":6561,"Gen":6562,"uff":6563,"undred":6564,"Ġreplacement":6565,"Ġhypothesized":6566,"icted":6567,"Additional":6568,"ocrine":6569,"ĠFA":6570,"Ġapplic":6571,"Ġspectroscopy":6572,"Ġcausing":6573,"Ġmarkedly":6574,"Ġprobes":6575,"osal":6576,"Ġenvironments":6577,"uz":6578,"array":6579,"Pl":6580,"Ġdemographic":6581,"Ġdeposition":6582,"Ġreproductive":6583,"ilities":6584,"Ġfibroblasts":6585,"Ġspin":6586,"cy":6587,"Ġhair":6588,"uvant":6589,"Ġstatistics":6590,"clinical":6591,"Ġfewer":6592,"rew":6593,"ĠResults":6594,"Ġadaptation":6595,"ĠMedic":6596,"Ġmedications":6597,"Ġhazard":6598,"Ġpoorly":6599,"ilib":6600,"ients":6601,"teen":6602,"Ġinner":6603,"ĠArab":6604,"ĠAfrica":6605,"Ġattemp":6606,"HF":6607,"ga":6608,"roscler":6609,"anned":6610,"ĠHCV":6611,"avy":6612,"âĪĴ/âĪĴ":6613,"vol":6614,"Ġoscill":6615,"Ġlisted":6616,"Ġneph":6617,"Ġinside":6618,"Ġschiz":6619,"Ġdiges":6620,"oman":6621,"Ġseiz":6622,"RPOSE":6623,"Ġdepletion":6624,"atase":6625,"Ġgold":6626,"ramatic":6627,"Ġaccompanied":6628,"Ġcytometry":6629,"Ġdatabases":6630,"tition":6631,"Ġendomet":6632,"Ġvisit":6633,"Hg":6634,"Ġconfound":6635,"Ġcer":6636,"ĠOnly":6637,"amate":6638,"immune":6639,"ico":6640,"CAT":6641,"Ġvisits":6642,"Ġsurge":6643,"Ġantigens":6644,"Ġvenous":6645,"ĠJanuary":6646,"drich":6647,"herent":6648,"till":6649,"Ġdetermining":6650,"Ġvisible":6651,"Ġinfectious":6652,"natal":6653,"ĠBio":6654,"ĠExper":6655,"Ġconsequence":6656,"ulture":6657,"Ġplanning":6658,"Ġmmol":6659,"oli":6660,"osterone":6661,"ĠFrom":6662,"ĠEGFR":6663,"Ġdemonstrates":6664,"])":6665,"ks":6666,"times":6667,"Ġcolorectal":6668,"Ġget":6669,"Ġischemia":6670,"Ġuses":6671,"Ġinterfer":6672,"rig":6673,"achment":6674,"Ġinsertion":6675,"gent":6676,"Ġdramatic":6677,"Le":6678,"Ġabsent":6679,"ĠBR":6680,"âĢīmM":6681,"Stud":6682,"Ġobese":6683,"Ġwhy":6684,"berg":6685,"Ġparental":6686,"ulative":6687,"ĠGu":6688,"Ġke":6689,"Ġmyc":6690,"urance":6691,"aine":6692,"Ġdial":6693,"poses":6694,"Ġhomeostasis":6695,"Ġbiofil":6696,"Ġactions":6697,"Ġsessions":6698,"300":6699,"ocytosis":6700,"Ġbands":6701,"Ġcapture":6702,"Ġslic":6703,"Ġfigure":6704,"Ġvectors":6705,"Ġhydrox":6706,"Ġlet":6707,"etric":6708,"lip":6709,"syn":6710,"odynamic":6711,"linear":6712,"going":6713,"iness":6714,"ĠIP":6715,"Ġattit":6716,"Ġenough":6717,"isting":6718,"ensis":6719,"ipit":6720,"Ġ51":6721,"Ġdiscovery":6722,"Ġhemorrh":6723,"Ġworldwide":6724,"WT":6725,"ĠGl":6726,"NR":6727,"ĠBL":6728,"ophage":6729,"prot":6730,"Ġadaptive":6731,"Ġhypoxia":6732,"Ġgastrointestinal":6733,"Ġtransfection":6734,"vance":6735,"Ġevolutionary":6736,"Ġsustained":6737,"Ġeti":6738,"acco":6739,"ĠCYP":6740,"Ġ54":6741,"ione":6742,"ophren":6743,"Ġchest":6744,"Ġwidth":6745,"Ġcytoplasmic":6746,"ĠSH":6747,"Ġperc":6748,"Ġ64":6749,"aryn":6750,"Ġchamber":6751,"Ġchick":6752,"Ġirradiation":6753,"carb":6754,"stage":6755,"Ġ400":6756,"Ġmelanoma":6757,"une":6758,"rays":6759,"zen":6760,"pass":6761,"orld":6762,"appro":6763,"gene":6764,"Ġcomplexity":6765,"Ġadvantages":6766,"Ġaqueous":6767,"Ġpreoperative":6768,"target":6769,"ĠAÎ²":6770,"Ġextremely":6771,"Ġanc":6772,"omical":6773,"Ġreh":6774,"Ġfunctioning":6775,"Ġalbumin":6776,"athy":6777,"Ġexclus":6778,"Most":6779,"Ġrod":6780,"Ġperi":6781,"Ġuns":6782,"Ġlimb":6783,"Ġcenters":6784,"Ġdetectable":6785,"Ġwords":6786,"Ġpredominantly":6787,"Ser":6788,"bound":6789,"ĠHence":6790,"opo":6791,"Ġdemonstrating":6792,"ĠAnother":6793,"Ġhepatitis":6794,"LD":6795,"ĠAK":6796,"Ġindicators":6797,"factory":6798,"ĠSM":6799,"Ġ53":6800,"Ġpregnant":6801,"oside":6802,"ĠAMP":6803,"Ġdistr":6804,"Ġcombinations":6805,"pen":6806,"Ġqualitative":6807,"Ġcharacterize":6808,"ĠFisher":6809,"Ġ85":6810,"Ġbeginning":6811,"Ġlarv":6812,"Ġ1998":6813,"Ġamyl":6814,"Ġpersistent":6815,"Ġconcerns":6816,"Ġmotiv":6817,"oor":6818,"ĠEC":6819,"aped":6820,"Ġpresenting":6821,"ecal":6822,"+,":6823,"Ġclones":6824,"Ġreporter":6825,"Ġcontributes":6826,"Ġhundred":6827,"Ġlimitation":6828,"Ġâĸ":6829,"Ġcatheter":6830,"icin":6831,"Ġhour":6832,"Ġlimits":6833,"Ġphysician":6834,"Ġinfarction":6835,"oin":6836,"Ġfoot":6837,"osity":6838,"ĠSal":6839,"Ġau":6840,"Ġsent":6841,"urity":6842,"Ġrestriction":6843,"Ġmurine":6844,"ss":6845,"ivered":6846,"Ġsatisfaction":6847,"born":6848,"ono":6849,"Ġ(>":6850,"itrate":6851,"reported":6852,"ilibrium":6853,"Ġintrinsic":6854,"Ġderivatives":6855,"Ġannual":6856,"Ġinterpre":6857,"ift":6858,"EB":6859,"Ġcaro":6860,"Ġmember":6861,"Further":6862,"entially":6863,"Ġkinetics":6864,"opsis":6865,"Ġouter":6866,"Ġaspir":6867,"CLC":6868,"Ġconnected":6869,"âĦ":6870,"Ġcla":6871,"deficient":6872,"Ġvide":6873,"enin":6874,"Ġdifferentiated":6875,"PURPOSE":6876,"but":6877,"uria":6878,"Ġchildhood":6879,"Ġrepresentation":6880,"Ġcorne":6881,"lux":6882,"Ġbiosynthesis":6883,"ĠMet":6884,"Ġperoxid":6885,"raction":6886,"ĠHLA":6887,"lect":6888,"Ġ49":6889,"Ġremod":6890,"Ġapoptotic":6891,"Ġconcer":6892,"Ġtag":6893,"ĠInter":6894,"Ġens":6895,"Ġgland":6896,"ivers":6897,"ĠEr":6898,"Ġdied":6899,"Ġnursing":6900,"KO":6901,"omycin":6902,"ends":6903,"Ġneonatal":6904,"UV":6905,"assi":6906,"Ġsple":6907,"ĠLab":6908,"glut":6909,"Ġheterogeneous":6910,"Ġactivate":6911,"tumor":6912,"isions":6913,"Ġvalu":6914,"Ġsusceptible":6915,"Sp":6916,"Ġstay":6917,"Ġevaluating":6918,"Ġinterviews":6919,"Ġsurveillance":6920,"OT":6921,"http":6922,"iance":6923,"Ġanth":6924,"Ġuser":6925,"Ġoptions":6926,"Âłmonths":6927,"Ġgamma":6928,"ĠTP":6929,"Ġcomplication":6930,"Ġsupports":6931,"Ġ99":6932,"inn":6933,"âĢīmm":6934,"Ġemphas":6935,"Ġflav":6936,"aving":6937,"tures":6938,"Ġfibr":6939,"Ġrequirements":6940,"ĠSI":6941,"ĠMo":6942,"Ġrecovered":6943,"Overall":6944,"phosphate":6945,"ĠGene":6946,"sibility":6947,"Ġintensive":6948,"Ġstandardized":6949,")).":6950,"ĠSF":6951,"ĠHb":6952,"tail":6953,"Ġscales":6954,"angl":6955,"Ġpartners":6956,"ĠAI":6957,"Ġnamely":6958,"ĠPar":6959,"Ġwhom":6960,"MAT":6961,"mat":6962,"Ġcontrac":6963,"acting":6964,"Ġcortic":6965,"ĠHE":6966,"Ġcalculate":6967,"Ġpredictor":6968,"comp":6969,"Ġ)":6970,"Ġpil":6971,"esides":6972,"Ġcavity":6973,"From":6974,"RR":6975,"Ġdisability":6976,"Ġhoriz":6977,"Ġhence":6978,"leuk":6979,"Ġsolvent":6980,"icular":6981,"Ġproviders":6982,"Ġdementia":6983,"Ġcam":6984,"Ġvirul":6985,"ohydr":6986,"pH":6987,"plicit":6988,"LT":6989,"Ġpolymorphism":6990,"Ġways":6991,"icillin":6992,"arin":6993,"Ġimplant":6994,"Ġenab":6995,"IGN":6996,"body":6997,"Ġane":6998,"abric":6999,"Ġperforming":7000,"002":7001,"Ġtuberculosis":7002,"ureus":7003,"Ġepilep":7004,"labeled":7005,"Ġkept":7006,"Ġpsychiatric":7007,"ady":7008,"Ġpoll":7009,"Ġclearance":7010,"dis":7011,"Ġtrap":7012,"Ġhistone":7013,"break":7014,"Sc":7015,"ilateral":7016,"Ġker":7017,"Ġsubstantially":7018,"Ġcreate":7019,"Ġcopy":7020,"dyl":7021,"acial":7022,"ĠKit":7023,"Ġpaired":7024,"Ġtrained":7025,"omers":7026,"Ġgon":7027,"Ġgave":7028,"illus":7029,"Ġcartil":7030,"usp":7031,"Ġcorrespond":7032,"Ġpooled":7033,"ato":7034,"edded":7035,"Ġsubunits":7036,"Figures":7037,"prising":7038,"ĠNevertheless":7039,"Ġutilization":7040,"Ġheavy":7041,"Ġparad":7042,"Ġfractures":7043,"Ġbinds":7044,"Ġschizophren":7045,"Sub":7046,"crip":7047,"Ġatheroscler":7048,"Ġice":7049,"selec":7050,"Cell":7051,"Ġtechnical":7052,"ĠFran":7053,"Ġtob":7054,"Ġfollic":7055,"Ġtreating":7056,"cription":7057,"Ġdelivered":7058,"Ġ58":7059,"Ġpharmacological":7060,"ĠCenter":7061,"chlor":7062,"Ġimprovements":7063,"lusions":7064,"Bi":7065,"Ġquad":7066,"Ġpromoting":7067,"Ġsense":7068,"ĠControl":7069,"Ġpublication":7070,"Ġairway":7071,"ucifer":7072,"ĠDespite":7073,"yper":7074,"Ġbed":7075,"Ġdiffered":7076,"Ġnarrow":7077,"Ġpromotes":7078,"ysiological":7079,"itting":7080,"Ġpenet":7081,"Ġsearc":7082,"Ġmaturation":7083,"Ġprecursor":7084,"draw":7085,"Ġperf":7086,"rected":7087,"Ġbecomes":7088,"Ġthym":7089,"Ġmethodology":7090,"ĠScientific":7091,"Ġoverlap":7092,"ply":7093,"Ġstronger":7094,"Several":7095,"ĠPG":7096,"Ġradiotherapy":7097,"Ġmovements":7098,"005":7099,"Bl":7100,"Ġcum":7101,"ĠML":7102,"operatively":7103,"Ġtrends":7104,"Ġbarriers":7105,"ĠSeveral":7106,"Ġjud":7107,"Ġelong":7108,"Ġharvested":7109,"Ġ57":7110,"Ġexistence":7111,"Per":7112,"ref":7113,"cells":7114,"Ġintroduction":7115,"+/-":7116,"TOR":7117,"chymal":7118,"olid":7119,"Ġportion":7120,"ĠKore":7121,"atories":7122,"Ġblocks":7123,"ABA":7124,"Ġdimensions":7125,"TG":7126,"rated":7127,"Ġaddressed":7128,"Ġregardless":7129,"ĠStudy":7130,"Ġsupernatant":7131,"ĠIGF":7132,"Ġpert":7133,"ĠDC":7134,"Ġbiology":7135,"Ġpathogenic":7136,"ĠProtein":7137,"Anal":7138,"vered":7139,"ush":7140,"Ġconsistently":7141,"Ġvolumes":7142,"Ġplane":7143,"obil":7144,"Ne":7145,"aceu":7146,"Ġrecombination":7147,"BB":7148,"Ġmedial":7149,"steine":7150,"Ġlibrary":7151,"Ġinitiated":7152,"owel":7153,"Ġperfusion":7154,"ĠLDL":7155,"mented":7156,"ÂłÂ°":7157,"Ġbottom":7158,"Ġremove":7159,"Ġprecise":7160,"Ġflux":7161,"Ġadsorption":7162,"ĠImmun":7163,"Ġaggregation":7164,"vasive":7165,"squ":7166,"ĠTF":7167,"Three":7168,"Ġexon":7169,"Ġvertical":7170,"ĠCN":7171,"Ġgreatly":7172,"pol":7173,"Ġacces":7174,"Ġelectrical":7175,"otropic":7176,"ĠSC":7177,"Ġvessel":7178,"mut":7179,"ĠInformation":7180,"Ġ1997":7181,"Ġremark":7182,"RIAL":7183,"vents":7184,"ĠMean":7185,"MM":7186,"ulates":7187,"oresis":7188,"hydroxy":7189,"La":7190,"fig":7191,"Ġstre":7192,"Ġrich":7193,"oking":7194,"Ġ62":7195,"Ġobserve":7196,"Ġattack":7197,"life":7198,"Ġalgorithms":7199,"Ġresource":7200,"Ġasymmet":7201,"Ġunp":7202,"Ġtook":7203,"udes":7204,"Ġphenotypic":7205,"Ġedge":7206,"amental":7207,"Ġtraject":7208,"Ġpractical":7209,"urys":7210,"Ġotherwise":7211,"Ġbenign":7212,"Ġpip":7213,"ritic":7214,"Ġbenz":7215,"Ġaureus":7216,"Ġchains":7217,"Ġembryonic":7218,"Ġvolunte":7219,"ensitivity":7220,"Ġempir":7221,"Ġrelevance":7222,"Ġregulates":7223,"Ġvaluable":7224,"(+)":7225,"Ġpromin":7226,"ophageal":7227,"ract":7228,"Ġprov":7229,"Sh":7230,"Ġsignalling":7231,"Ġoption":7232,"ĠPET":7233,"Ġscler":7234,"Ġrice":7235,"ĠAfrican":7236,"Ġcytotoxic":7237,"Ġhip":7238,"embrane":7239,"inson":7240,"ida":7241,"Ġlipids":7242,"Ġsaliv":7243,"Ġfaster":7244,"requenc":7245,"lyce":7246,"asty":7247,"Ġchallenging":7248,"stolic":7249,"ĠSV":7250,"Ġdonors":7251,"Ġmicrogl":7252,"pan":7253,"Ġencour":7254,"Ġ(<":7255,"oidal":7256,"vic":7257,".âĢĿ":7258,"Ġoperating":7259,"ĠBriefly":7260,"arities":7261,"Ġprofessional":7262,"hermo":7263,"âĢī10":7264,"MSO":7265,"Ġsupplementation":7266,"enia":7267,"empor":7268,"ĠPrevious":7269,"ĠFour":7270,"ESIGN":7271,"Ġcovered":7272,"Ġobject":7273,"Ġepithelium":7274,"Fe":7275,"ĠSTAT":7276,"Ġdilution":7277,"atigue":7278,"ĠPF":7279,"ĠBo":7280,"formed":7281,"Ġexamples":7282,"Ġarchit":7283,"Ġspectrometry":7284,"omit":7285,"Ġgir":7286,"ĠGiven":7287,"ancial":7288,"tox":7289,"Ġstandards":7290,"Ġlabor":7291,"razil":7292,"Ġinfant":7293,"Ġlymphoma":7294,"Ġguide":7295,"Ġfungal":7296,"Ġetc":7297,"phyl":7298,"Ġyielded":7299,"Ġadip":7300,"ather":7301,"economic":7302,"Ġperspective":7303,"Ġexcit":7304,"weeks":7305,"Ġopposite":7306,"ocarcinoma":7307,"Ġtiming":7308,"Ġparticipated":7309,"Ġcareful":7310,"ĠÎ¼L":7311,"elves":7312,"Ġrating":7313,"lik":7314,"Ġhybridization":7315,"Ġformal":7316,"fe":7317,"Ġdigital":7318,"gence":7319,"âĢľ":7320,"Ġprofessionals":7321,"Ġenable":7322,"adily":7323,"Ġspectral":7324,"Ġadjustment":7325,"Because":7326,"Ġcode":7327,"ĠCare":7328,"orous":7329,"Ġ63":7330,"Ġindicator":7331,"Ġeducational":7332,"iliary":7333,"Ġconnectivity":7334,"Ġconcerning":7335,"ogether":7336,"Ġadding":7337,"Ġadren":7338,"Ġopi":7339,"Ġinsight":7340,"Ġradio":7341,"Ġwindow":7342,"Ġmos":7343,"ĠGS":7344,"Ġinvolve":7345,"Ġenzymatic":7346,"Ġcollabor":7347,"ively":7348,"uciferase":7349,"ĠDA":7350,"Ġdimin":7351,"ĠCRC":7352,"ĠCSF":7353,"Ġstrom":7354,"Ġfabric":7355,"CAM":7356,"âī¥":7357,"Ġcomputational":7358,"Ġdescription":7359,"omb":7360,"Ġepig":7361,"Ġsubtypes":7362,"hyd":7363,"abs":7364,"Ġproducing":7365,"hydrogen":7366,"UR":7367,"heres":7368,"Ġrig":7369,"Ġimmediate":7370,"Ġcrop":7371,"Ġbreat":7372,"âĢīnm":7373,"Ġmonitor":7374,"apl":7375,"ulose":7376,"Ġconsideration":7377,"ĠPH":7378,"Ġregimen":7379,"Ġoutbreak":7380,"omics":7381,"Ġdrain":7382,"ecture":7383,"Ġsched":7384,"Ġvacu":7385,"Mean":7386,"Ġtraff":7387,"Aldrich":7388,"Ġyellow":7389,"Ġpolymorphisms":7390,"acic":7391,"Ġastroc":7392,"Ġhippocampus":7393,"Ġtobacco":7394,"Ġfitness":7395,"psis":7396,"Ġwavel":7397,"Ġreplicates":7398,")]":7399,"Ġparasite":7400,"Ġawareness":7401,"ĠNAD":7402,"Ġmineral":7403,"Ġfever":7404,"Ġquite":7405,"Ġdirected":7406,"ait":7407,"Ġgenus":7408,"Ġcalculations":7409,"ample":7410,"Ġseason":7411,"Âłdays":7412,"ĠGP":7413,"Ġgraf":7414,"ĠCOPD":7415,"Ġultim":7416,"urated":7417,"Ġproved":7418,"Ġmobility":7419,"ĠVal":7420,"Ġinsights":7421,"ofluorescence":7422,"igm":7423,"Ġcontents":7424,"Ġhex":7425,"ĠGO":7426,"Ġdescribes":7427,"Ġneurode":7428,"sk":7429,"Ġpress":7430,"ĠNorth":7431,"Ġsuic":7432,"Ġfruit":7433,"Ġtyrosine":7434,"Ġscatter":7435,"plasia":7436,"Ġincome":7437,"Ġasc":7438,"Ġchromosomes":7439,"Ġarthritis":7440,"Ġshare":7441,"âĢī+":7442,"Ġtemplate":7443,"ATP":7444,"Ġneither":7445,"Ġmaps":7446,"otrans":7447,"Ġpersist":7448,"opathological":7449,"+/":7450,"after":7451,"veness":7452,"Ġ67":7453,"Ġincreasingly":7454,"Ġtele":7455,"Ġclimate":7456,"versible":7457,"Ġinfluences":7458,"heses":7459,"Ġlipoprotein":7460,"Ġlens":7461,"ĠEng":7462,"eck":7463,"ĠNon":7464,"values":7465,"engths":7466,"Ġfocal":7467,"Ġmaxim":7468,"eb":7469,"Ġconstructs":7470,"adjusted":7471,"abilitation":7472,"ophila":7473,"high":7474,"hematic":7475,"aterials":7476,"Ġintegrity":7477,"SV":7478,"Ġprotease":7479,"aden":7480,"Ġexplanation":7481,"Ġcyst":7482,"portantly":7483,"tors":7484,"Ġbodies":7485,"Ġresidents":7486,"Ġbiomass":7487,"Ġcartilage":7488,"Ġscreened":7489,"mer":7490,"Ġvirt":7491,"uctu":7492,"Ġlarvae":7493,"aceae":7494,"Ġindices":7495,"Ġupstream":7496,"Ġhypoth":7497,"acin":7498,"Ġelectrodes":7499,"Ġincom":7500,"Ġchanging":7501,"UD":7502,"Ġamb":7503,"Ġ61":7504,"ĠTG":7505,"Ġsinus":7506,"Ġongoing":7507,"Ġdecisions":7508,"Ġtechnologies":7509,"zyme":7510,"lig":7511,"Ġcongen":7512,"defined":7513,"Ġexists":7514,"rophy":7515,"Ġsymmet":7516,"cepted":7517,"Ġacetate":7518,"alities":7519,"Ġpredictions":7520,"Ġneuron":7521,"Ġ1996":7522,"ceptions":7523,"ocytic":7524,"Ġcolony":7525,"Ġspleen":7526,"Ġlos":7527,"ike":7528,"Ġsound":7529,"rozen":7530,"yth":7531,"Ġsubstance":7532,"requency":7533,"upp":7534,"Ġaccom":7535,"class":7536,"Ġregeneration":7537,"Ġsemi":7538,"Ġtrim":7539,"nel":7540,"ĠInternational":7541,"1000":7542,"Ġattenuated":7543,"Ġsuspected":7544,"Ġfacilities":7545,"Ġfundamental":7546,"Ġsummarized":7547,"right":7548,"rete":7549,"Ġregulator":7550,"ĠÂµM":7551,"Ġdrinking":7552,"Ġclosed":7553,"Ġpackage":7554,"idopsis":7555,"Âł6":7556,"Ġinhibiting":7557,"Ġpermeability":7558,"Ġneighb":7559,"Ġeffort":7560,"itol":7561,"Ġcorrelate":7562,"arth":7563,"Ġcalculation":7564,"ĠAnalysis":7565,"Ġmess":7566,"osed":7567,"size":7568,"Ġaims":7569,"from":7570,"Ġdeb":7571,"rophic":7572,"Ġaug":7573,"Ġthi":7574,"Ġages":7575,"arcoma":7576,"Ġgranul":7577,"ĠBrazil":7578,"Ġconcomit":7579,"Ġproportional":7580,"FR":7581,"Ġnit":7582,"iae":7583,"ĠSi":7584,"Ġmicroarray":7585,"Ġcomparative":7586,"Ġleukemia":7587,"hern":7588,"Ġnutrient":7589,"Ġtrees":7590,"rought":7591,"Ġutility":7592,"tase":7593,"Ġmell":7594,"Ġreviews":7595,"Ġblocking":7596,"101":7597,"Ġsimilarly":7598,"Ġsor":7599,"Ġ68":7600,"Ġinternational":7601,"Ġbulk":7602,"Ġwithdraw":7603,"Ġmoun":7604,"Ġassign":7605,"Ġforming":7606,"Ġmaintaining":7607,"Ġdeficits":7608,"âĦ¢":7609,"ĠNi":7610,"OBJECTIVES":7611,"Ġfrontal":7612,"Ġresc":7613,"Invitrogen":7614,"Ġ66":7615,"Ġrequiring":7616,"Ġschizophrenia":7617,"environ":7618,"omon":7619,"oprec":7620,"Ġhearing":7621,"Ġsequenced":7622,"Ġfluctu":7623,"ceptor":7624,"Ġattempt":7625,"Ġthems":7626,"ulties":7627,"otomy":7628,"seq":7629,"Ġsampled":7630,"Ġelevation":7631,"Ġfinancial":7632,"Ġthemselves":7633,"Ġranges":7634,"enosis":7635,"DC":7636,"ought":7637,"Ġantagonist":7638,"Ġanesthesia":7639,"Ġatoms":7640,"rocytes":7641,"ĠDecember":7642,"Ġdiag":7643,"unced":7644,"Âłmm":7645,"Ġagonist":7646,"120":7647,"Ġfatigue":7648,"quito":7649,"ĠDifferen":7650,"Ġconstitu":7651,"Ġpi":7652,"Ġharb":7653,"Ġautomatic":7654,"âĢĿ,":7655,"avi":7656,"educ":7657,"Ġgrain":7658,"Ġsepsis":7659,"Ġkeep":7660,"Ġmol":7661,"ptomatic":7662,"iction":7663,"ĠSW":7664,"ĠEP":7665,"Ġprevalent":7666,"ura":7667,"alled":7668,"Ġdecades":7669,"Ġtumours":7670,"Ġreferr":7671,"Ġ59":7672,"auc":7673,"Ġaccurately":7674,"Ġderm":7675,"Ġsupply":7676,"Ġtranslocation":7677,"Ġsteady":7678,"Ġpreferred":7679,"col":7680,"inating":7681,"ĠMG":7682,"Ġadmitted":7683,"Ġpara":7684,"Ġhomolog":7685,"Ġpreventing":7686,"Ġlifest":7687,"ĠTM":7688,"Ġclassical":7689,"Ġdriven":7690,"Ġblind":7691,"Ġsole":7692,"Ġtransformed":7693,"dri":7694,"ĠBay":7695,"thern":7696,"Ġglomer":7697,"hyth":7698,"400":7699,"Ġtip":7700,"Ġinfiltration":7701,"aemia":7702,"Ġpredicting":7703,"icking":7704,"adian":7705,"Ġvalve":7706,"ryst":7707,"Ġpathoph":7708,"AST":7709,")(":7710,"PK":7711,"spring":7712,"Ġvulner":7713,"assium":7714,"Ġdeliver":7715,"ophosph":7716,"catenin":7717,"ĠMal":7718,"Ġbowel":7719,"Ġoverexp":7720,"mp":7721,"ĠSO":7722,"Ġhomogene":7723,"Ġclinicians":7724,"Previous":7725,"Gl":7726,"onate":7727,"ierarch":7728,"Ġemerging":7729,"Ġnormally":7730,"Ġprincipal":7731,"actor":7732,"Ġcohorts":7733,"Ġpreced":7734,"Ġunable":7735,"td":7736,"amycin":7737,"Ġspine":7738,"Ġreading":7739,"Ġangiogenesis":7740,"Ġreplaced":7741,"Ġformula":7742,"ĠTE":7743,"opes":7744,"Inc":7745,"Ġraised":7746,"Ġquantify":7747,"Ġstere":7748,"umber":7749,"Ġeasy":7750,"then":7751,"Ġweights":7752,"Ġsystolic":7753,"Ġtight":7754,"Ġlamin":7755,"Ġmetric":7756,"porting":7757,"Ġexclusion":7758,"**":7759,"âĢī2":7760,"Ġviol":7761,"Ġhighlighted":7762,"aptic":7763,"Ġraw":7764,"ĠÎ¼l":7765,"rowth":7766,"ĠEurope":7767,"Bio":7768,"ĠTris":7769,"Ġautoimmune":7770,"Ġeosin":7771,"Ġaddi":7772,"Ġcarbohydr":7773,"leukin":7774,"ĠOA":7775,"pG":7776,"ower":7777,"Ġcytotoxicity":7778,"Ġdifficulty":7779,"Ġexception":7780,"PL":7781,"ara":7782,"Ġwalking":7783,"estic":7784,"Ġreflected":7785,"ij":7786,"ĠClinical":7787,"Ġhydrophobic":7788,"apor":7789,"uly":7790,"ĠBM":7791,"Ġretin":7792,"oon":7793,"Ġanalytical":7794,"ĠThree":7795,"Ġneutrophils":7796,"Be":7797,"Ig":7798,"Ġaspect":7799,"clusion":7800,"Ġmobile":7801,"Ġmom":7802,"ĠSigma":7803,"Ġroots":7804,"Ġzinc":7805,"Ġprecision":7806,"ĠERK":7807,"Ġhippocampal":7808,"Ġnull":7809,"Ġpreference":7810,"ĠNote":7811,"Ġsimpl":7812,"ĠStudent":7813,"]âĢĵ":7814,"Ġacts":7815,"Ġtransplant":7816,"ĠMethods":7817,"Ġteeth":7818,"ERIAL":7819,"FI":7820,"Ġsurviv":7821,"Ġnutritional":7822,"Ġmucosa":7823,"Ġcolleag":7824,"Ġaccepted":7825,"ĠNPs":7826,"Ġefficiently":7827,"Ġinterference":7828,"ĠFollowing":7829,"Ġfilms":7830,"Ġframe":7831,"Ġanalges":7832,"ochrome":7833,"Ġcontamin":7834,"âĢīÂµ":7835,"Ġunex":7836,"ĠArabidopsis":7837,"rey":7838,"outhern":7839,"Ġxen":7840,"Ġacetyl":7841,"Ġcorrected":7842,"Ġclaim":7843,"Ġverified":7844,"stimulated":7845,"bular":7846,"ĠHep":7847,"Ġseek":7848,"Ġapplying":7849,"Ġsubcutaneous":7850,"CSF":7851,"PG":7852,"Ġever":7853,"TM":7854,"rotein":7855,"Ġleak":7856,"Ġupd":7857,"Ġcorresponds":7858,"Ġideal":7859,"Us":7860,"field":7861,"ette":7862,"Ġupregulation":7863,"Ġautom":7864,"Ġaggressive":7865,"onym":7866,"Ġtransm":7867,"Ġdepressive":7868,"ĠCancer":7869,"Ġphag":7870,"Ġarteries":7871,"Ġsubstitution":7872,"Ġelectrophoresis":7873,"ypt":7874,"Ġmultic":7875,"Ġfa":7876,"Ġrhyth":7877,"ysacchar":7878,"Ġdetermin":7879,"Ġcontributing":7880,"Ġbiomarker":7881,"NOS":7882,"Ġposi":7883,"Ġspp":7884,"ograms":7885,"ĠPO":7886,"ĠHigh":7887,"ĠStatistical":7888,"aphyl":7889,"changed":7890,"Ġnasal":7891,"ams":7892,"Ġassessments":7893,"Ġcomprised":7894,"Cor":7895,"ee":7896,"ĠBC":7897,"acterial":7898,"isease":7899,"including":7900,"Ġdissolved":7901,"length":7902,"Ġimplantation":7903,"Ġarrest":7904,"Ġsynth":7905,"]âĢĵ[":7906,"haps":7907,"Ġconsult":7908,"Ġprevented":7909,"ĠIndia":7910,"otion":7911,"aved":7912,"hex":7913,"ĠWnt":7914,"Ġrotation":7915,"Ġsynerg":7916,"parison":7917,"Ġlearn":7918,"Ġla":7919,"Ġdetecting":7920,"Ġadipose":7921,"mann":7922,"oL":7923,"Ġfinger":7924,"Ġcaregi":7925,"Ġyields":7926,"Ġquick":7927,"Ġscans":7928,"Ġju":7929,"osystems":7930,"gel":7931,"inates":7932,"ĠMon":7933,"TB":7934,"Ġfine":7935,"ĠKO":7936,"Ġattached":7937,"ĠÂµm":7938,"two":7939,"NI":7940,"Ġglycos":7941,"yte":7942,"cephal":7943,"Ġ1995":7944,"Ġpropag":7945,"rate":7946,"Î´":7947,"Ġbrief":7948,"siveness":7949,"Ġdifficulties":7950,"Ġaneurys":7951,"ĠCNS":7952,"Ġsought":7953,"Ġect":7954,"0000":7955,"Ġprelim":7956,"Ġadopted":7957,"independent":7958,"Ġquestionnaires":7959,"Ġsubgroups":7960,"Ġmosquito":7961,"Ġcolleagues":7962,"sies":7963,"Ġdye":7964,"Ġauditory":7965,"GR":7966,"ĠMicro":7967,"Ġprono":7968,"Ġsugges":7969,"Ġthreat":7970,"Ġatrial":7971,"ĠRO":7972,"Ġlineage":7973,"Ġpigs":7974,"ĠFL":7975,"GO":7976,"PH":7977,"ĠHC":7978,"Ġvesicles":7979,"Ġpronounced":7980,"aled":7981,"ĠDS":7982,"Ġdiast":7983,"Ġmodulate":7984,"Ġcarrying":7985,"Ġ94":7986,"Ġsynchron":7987,"Ġcardiomy":7988,"pread":7989,"âī¤":7990,"Ġ98":7991,"points":7992,"Ġcomorbid":7993,"irty":7994,"ĠDN":7995,"Ġexpressions":7996,"Ġcumulative":7997,"They":7998,"Ġrelapse":7999,"Ġclean":8000,"Ġmacrophage":8001,"Ġmetall":8002,"idespread":8003,"rist":8004,"Ġchond":8005,"ĠOverall":8006,"elt":8007,"sensitive":8008,"atics":8009,"Ġprominent":8010,"ĠMDA":8011,"Ġvirulence":8012,"Ġprophyl":8013,"INT":8014,"ozo":8015,"ĠTechnologies":8016,"Ġeligible":8017,"Ġlinkage":8018,"Ġinnate":8019,"Ġconformation":8020,"ĠMB":8021,"ypical":8022,"Ġisolate":8023,"Ġworse":8024,"dL":8025,"Ġresolved":8026,"Ġblotting":8027,"invasive":8028,"heum":8029,"Ġrule":8030,"generative":8031,"Ġmicrog":8032,"Ġexcitation":8033,"anes":8034,"ĠPrim":8035,"Ġformer":8036,"According":8037,"Ġmarket":8038,"Ġsymptomatic":8039,"acerb":8040,"Ġisoforms":8041,"Ġmellitus":8042,"RD":8043,"lution":8044,"Ġovercome":8045,"Ġreinf":8046,"Ġeffector":8047,"Ġproton":8048,"Ġscenario":8049,"igare":8050,"Ġlabeling":8051,"Ġscheme":8052,"uits":8053,"tized":8054,"grade":8055,"uity":8056,"Ġdisruption":8057,"Ġgradually":8058,"ĠTA":8059,"Ġdiscontin":8060,"ections":8061,"ĠMy":8062,"Ġfemoral":8063,"HL":8064,"Ġsecreted":8065,"Ġsensors":8066,"Ġcandidates":8067,"Ġillustrated":8068,"Four":8069,"Ġexer":8070,"Ġinferior":8071,"Ġulcer":8072,"ultiple":8073,"Ġphosphorylated":8074,"green":8075,"antic":8076,"Ġcentrifugation":8077,"Ġhorizontal":8078,"ademic":8079,"ĠParticipants":8080,"Ġdescrip":8081,"Ġsituations":8082,"ĠÃħ":8083,"MATERIAL":8084,"edic":8085,"vey":8086,"Ġdispers":8087,"Ġpix":8088,"Ġstret":8089,"ĠPark":8090,"Ġjo":8091,"Ġexceed":8092,"Ġepisodes":8093,"mosp":8094,"Ġundert":8095,"Ġremodeling":8096,"Ġcasc":8097,"Ġreadily":8098,"Ġoptimized":8099,"Ġrehabilitation":8100,"retion":8101,"veolar":8102,"Ġchloride":8103,"urgical":8104,"Ġsquare":8105,"Ġwidespread":8106,"Ġsubjective":8107,"Ġemerged":8108,"Ġcentrifuged":8109,"Ġdopamine":8110,"plicate":8111,"chemical":8112,"resentative":8113,"Ġhr":8114,"Ġdistances":8115,"ns":8116,"Ġcann":8117,"Ġhomogen":8118,"ukary":8119,"Ġult":8120,"Ġpotassium":8121,"125":8122,"Ġpore":8123,"asion":8124,"Ġcolonies":8125,"pop":8126,"Ġanatomical":8127,"olding":8128,"Ġaligned":8129,"ĠLD":8130,"Ġfasting":8131,"Ġmotifs":8132,"Ġlapa":8133,"meth":8134,"Ġdehydrogen":8135,"Ġselect":8136,"idase":8137,"ĠrRNA":8138,"Ġinters":8139,"Ġsubtype":8140,"Ġventilation":8141,"ference":8142,"ĠHT":8143,"Ġmodes":8144,"Ġsometimes":8145,"Ġoffspring":8146,"ĠAC":8147,"ror":8148,"otyping":8149,"mes":8150,"Ġarom":8151,"atible":8152,"emat":8153,"Ġinducing":8154,"Ġfavorable":8155,"Ġexacerb":8156,"Ġequilibrium":8157,"Ġbonds":8158,"Ġinjections":8159,"Ġmanual":8160,"Ġlifestyle":8161,"Ġproven":8162,"Ġoptimization":8163,"Ġvaccines":8164,"Ġbelieved":8165,"Ġstom":8166,"Ġcontamination":8167,"MSCs":8168,"Ġsubstances":8169,"ystic":8170,"Ġintest":8171,"Ġaberr":8172,"Ġfacial":8173,"amino":8174,"Ġsurveys":8175,"benz":8176,"hene":8177,"ĠHER":8178,"EX":8179,"Ġconce":8180,"illi":8181,"Ġrarely":8182,"Ġcloned":8183,"ques":8184,"Ġadjuvant":8185,"ĠItal":8186,"ĠRNAs":8187,"Ġreflects":8188,"NG":8189,"Ġoc":8190,"Ġwaste":8191,"tiviral":8192,"ymer":8193,"Ã¡":8194,"Ġanomal":8195,"Ġhous":8196,"ĠGM":8197,"Ġcontinue":8198,"Ġglutamate":8199,"Ġpreliminary":8200,"Ġbon":8201,"ĠTa":8202,"Ġstiff":8203,"anta":8204,"ĠHO":8205,"Ġacceptable":8206,"arp":8207,"Ġretained":8208,"Ġammon":8209,"Ġprotect":8210,"Ġplaque":8211,"Ġitem":8212,"Ġconservation":8213,"Ġreveals":8214,"expressing":8215,"conjug":8216,"Ġencoded":8217,"Ġidea":8218,"rid":8219,"Ġhttp":8220,"Some":8221,"Ġgrap":8222,"Ġretro":8223,"lings":8224,"Ġmicrobiota":8225,"Ġadenocarcinoma":8226,"Ġperturb":8227,"Ġwoman":8228,"ĠHDL":8229,"Ġapical":8230,"Ġtransduction":8231,"ĠHuman":8232,"Ġparasites":8233,"orth":8234,"ĠEm":8235,"king":8236,"Ġinactivation":8237,"Ġinserted":8238,"Ġfeasible":8239,"Ġiod":8240,"Ġaid":8241,"ĠInf":8242,"Ġcomplementary":8243,"tization":8244,"alia":8245,"ĠNR":8246,"Ġassumption":8247,"Ġbelieve":8248,"GD":8249,"Ġps":8250,"Ġindust":8251,"Ġconclusions":8252,"Ġarchitecture":8253,"150":8254,"Ġ(-":8255,"emographic":8256,"Clinical":8257,"Ġbrid":8258,"Ġaz":8259,"standing":8260,"ief":8261,"Ġexogenous":8262,"Ġtib":8263,"Ġadvances":8264,"ĠĠĠĠĠĠĠĠĠĠĠĠĠĠĠĠ":8265,"Ġreagent":8266,"rele":8267,"ysical":8268,"Ġket":8269,"ĠWHO":8270,"expression":8271,"PAGE":8272,"Ġdiscovered":8273,"urrently":8274,"ĠAM":8275,"Sm":8276,"ards":8277,"ĠRecently":8278,"ipped":8279,"Ġvital":8280,"Ġoffers":8281,"Ġpotentials":8282,"Ġknockout":8283,"Ġamyloid":8284,"VI":8285,"agulation":8286,"Ġvisualized":8287,"Ġpurposes":8288,"ximately":8289,"Ġprogramme":8290,"Ġsulfate":8291,"Ġmonol":8292,"Ġsmokers":8293,"ev":8294,"enchymal":8295,"Ġrev":8296,"ĠHIF":8297,"ĠNA":8298,"Ġviable":8299,"Ġfiltered":8300,"Ġforest":8301,"coding":8302,"Ġbile":8303,"antum":8304,"ĠNeu":8305,"Ġrough":8306,"600":8307,"ocomp":8308,"ĠGABA":8309,"Ġresting":8310,"being":8311,"ilic":8312,"ĠEp":8313,"Ġloaded":8314,",âĢĿ":8315,"ĠOT":8316,"Ġaccession":8317,"factor":8318,"Ġextensively":8319,"Ġimmobil":8320,"Ġreper":8321,"Ġconj":8322,"ĠAu":8323,"etin":8324,"Ġsomatic":8325,"Ġstent":8326,"otechn":8327,"ichia":8328,"Ġadapted":8329,"Ġincorporated":8330,"enh":8331,"Ġmapped":8332,"Ġexcessive":8333,"ĠMay":8334,"Ġchol":8335,"ĠART":8336,"Ġphyt":8337,"Ġrow":8338,"rosophila":8339,"Ġroute":8340,"kelet":8341,"Ġincorporation":8342,"DG":8343,"icture":8344,"ĠType":8345,"Ġatmosp":8346,"Ġimpacts":8347,"ĠGI":8348,"Ġattachment":8349,"reme":8350,"omeric":8351,"yses":8352,"ĠET":8353,"Ġfarm":8354,"ĠEEG":8355,"Ġdiffuse":8356,"Ġplasmids":8357,"Ġkinases":8358,"Ġsynthase":8359,"non":8360,"Ġforces":8361,"Ġsustain":8362,"Ġancest":8363,"geal":8364,"reased":8365,"Ġpresum":8366,"Ġcarriers":8367,"erge":8368,"Ġeukary":8369,"Ġembryo":8370,"ker":8371,"Ġcir":8372,"Ġlnc":8373,"Ġcomprom":8374,"Ġexpon":8375,"ĠkDa":8376,"âĢĻ,":8377,"Ġdiscrimination":8378,"idi":8379,"Ġmediate":8380,"Ġcopper":8381,"Ġopportunity":8382,"HI":8383,"fil":8384,"Ġdried":8385,"Ġseeds":8386,"Ġmask":8387,"ĠDet":8388,"rosp":8389,"ĠGR":8390,"Ġethyl":8391,"Ġcompliance":8392,"Ġharm":8393,"Ġapproval":8394,"Ġhospitalization":8395,"Ġcriterion":8396,"brain":8397,"iples":8398,"step":8399,"Ġcomplicated":8400,"Ġsolub":8401,"Ġaccounted":8402,"Ġgives":8403,"ĠEqu":8404,"ĠAnti":8405,"Ġpilot":8406,"osci":8407,"response":8408,"acetyl":8409,"Ġrelaxation":8410,"Reg":8411,"Ġtooth":8412,"Ġquar":8413,"Ġcirculation":8414,"Ġconsiderably":8415,"pe":8416,"through":8417,"adher":8418,"Ġtriple":8419,"likely":8420,"Ġcoc":8421,"ascul":8422,"Ġbranch":8423,"Ġexpanded":8424,"Ġgirls":8425,"Ġ$":8426,"ĠFl":8427,"ĠLA":8428,"Ġphosphatase":8429,"wards":8430,"Ġspecimen":8431,"Ġjunction":8432,"Ġcarotid":8433,"Ġcongenital":8434,"platin":8435,"OF":8436,"Ġ97":8437,"Ġhierarch":8438,"ĠLT":8439,"Ġmotility":8440,"Ġtoxin":8441,"ni":8442,"coprotein":8443,"Ġbiofilm":8444,"Ġna":8445,"Ġmonocytes":8446,"Ġconcomitant":8447,"ools":8448,"Ġpup":8449,"ensin":8450,"Ġwet":8451,"Ġ78":8452,"Ġfrozen":8453,"ĠIS":8454,"ildren":8455,"iable":8456,"ĠEV":8457,"Ġtubes":8458,"Ġstenosis":8459,"ublic":8460,"Ġfiltr":8461,"Ġcataly":8462,"disc":8463,"Ġpay":8464,"ocking":8465,"Ġvideo":8466,"ĠMn":8467,"Ġdisapp":8468,"Ġboundary":8469,"ĠMM":8470,"blue":8471,"Ġmucosal":8472,"Ġepigenetic":8473,"Ġnewborn":8474,"umbar":8475,"+-":8476,"do":8477,"Ġvolunteers":8478,"Ġcond":8479,"Ġbeads":8480,"loaded":8481,"Ġord":8482,"Ġelect":8483,"Ġglycer":8484,"Ġpromoted":8485,"Ġembedded":8486,"Ġconverted":8487,"Ġsplicing":8488,"Ġcaptured":8489,"Recent":8490,"Ġfeasibility":8491,"Ġ71":8492,"ĠDMSO":8493,"Ġdistress":8494,"Cons":8495,"ocated":8496,"Ġinterpreted":8497,"ĠBcl":8498,"transferase":8499,"Ġexperimentally":8500,"grad":8501,"unt":8502,"Ġpractition":8503,"Ġempirical":8504,"Ġfo":8505,"affec":8506,"ulsion":8507,"ĠmRNAs":8508,"Ġstimulate":8509,"Ġasymptomatic":8510,"aryngeal":8511,"Ġagar":8512,"Ġhypertroph":8513,"Ġdiscrep":8514,"Ġmatching":8515,"Ġsilencing":8516,"ĠStudies":8517,"pre":8518,"asic":8519,"Ġventral":8520,"Ġrequirement":8521,"Ġspor":8522,"Ġball":8523,"ospor":8524,"Ġstated":8525,"ĠGA":8526,"ivariate":8527,"Ġsucrose":8528,"Ġplacement":8529,"Ġaway":8530,"ĠChem":8531,"ubation":8532,"Ġnutrition":8533,"ĠCG":8534,"avail":8535,"Ġgreatest":8536,"ger":8537,"Ġcontro":8538,"Ġwt":8539,"ĠTreg":8540,"Ġablation":8541,"Ġ69":8542,"Ġhomologous":8543,"rhyth":8544,"ĠICU":8545,"CB":8546,"De":8547,"Ġdrawn":8548,"Ġartificial":8549,"Ġuncertainty":8550,"Ġvision":8551,"Ġexhibits":8552,"Ġfoods":8553,"Ġfinally":8554,"Ġinsufficient":8555,"ham":8556,"ĠRR":8557,"450":8558,"Ġsham":8559,"ĠFI":8560,"Ġtendency":8561,"usting":8562,"Ġmethanol":8563,"Ġtrait":8564,"scher":8565,"appa":8566,"Ġtakes":8567,"Ġtrigger":8568,"ĠMAPK":8569,"Ġechocardi":8570,"Ã¶":8571,"ĠStr":8572,"Ġusage":8573,"FL":8574,"aste":8575,"emble":8576,"Ġestrogen":8577,"Ġdehydrogenase":8578,"Ġdemand":8579,"Ġcalibration":8580,"hydrox":8581,"Ġreactivity":8582,"Ġwheat":8583,"Ġgray":8584,"Ġlungs":8585,"ampl":8586,"quin":8587,"Ġenables":8588,"âĢī3":8589,"Ġpreferen":8590,"Six":8591,"Ġselectivity":8592,"Ġ1990":8593,"Ġmalignancy":8594,"Ġreversed":8595,"Spec":8596,"drug":8597,"ĠTotal":8598,"Ġdifferentiate":8599,"Ġplotted":8600,"Ġenl":8601,"Ġscar":8602,"Ġfeel":8603,"oblot":8604,"Ġconflict":8605,"human":8606,"Ġcarrier":8607,"âĢ¯=":8608,"Ġcorneal":8609,"aceutical":8610,"Ġshifts":8611,"ĠSwed":8612,"omere":8613,"Ġplasticity":8614,"Ġclone":8615,"Ġregimens":8616,"Ġcool":8617,"Ġconstruction":8618,"Ġcutoff":8619,"ĠTH":8620,"Ġscored":8621,"athione":8622,"Ġinvestigating":8623,"asma":8624,"Ġproduces":8625,"Ġgangl":8626,"Ġexplo":8627,"Ġoverweight":8628,"oplastic":8629,"lectric":8630,"Ġepidemiological":8631,"tes":8632,"Ġdownregulated":8633,"cepts":8634,"Ġsilic":8635,"ĠDepartment":8636,"Ġdialysis":8637,"Ġtension":8638,"Ġhapp":8639,"ĠDue":8640,"ĠDrosophila":8641,"Ġunlikely":8642,"Trans":8643,"Ġconfocal":8644,"ĠSyn":8645,"Ġcorrelates":8646,"Ġbreeding":8647,"Ġpreparations":8648,"Ġcodon":8649,"Ġpretreatment":8650,"Ġlept":8651,"Ġdiagnoses":8652,"omonas":8653,"ĠHg":8654,"Âłg":8655,"ariable":8656,"ultural":8657,"Ġimmunore":8658,"ACS":8659,"Ġlimiting":8660,"Ġreinfor":8661,"TNF":8662,"ĠSN":8663,"Ġaveraged":8664,"erating":8665,"Ġluciferase":8666,"earson":8667,"Ġjour":8668,"Ġastrocytes":8669,"Ġbelief":8670,"Ġkinetic":8671,"Ġhemorrhage":8672,"Ġhind":8673,"Ġstrict":8674,"Ġ76":8675,"Ġproperty":8676,"Ġeating":8677,"Met":8678,"erves":8679,"Ġindeed":8680,"Ġunf":8681,"Ġunchanged":8682,"adherin":8683,"Ġbip":8684,"amous":8685,"ĠAV":8686,"Ġinfer":8687,"ycline":8688,"Ġcombining":8689,"Ġsymb":8690,"Ġrear":8691,"Ġcompression":8692,"Ġ73":8693,"Ġguidance":8694,"hea":8695,"ĠDis":8696,"Ġapply":8697,"affin":8698,"Ġburn":8699,"Ġhar":8700,"oted":8701,"ĠWorld":8702,"thetic":8703,"Ġdendritic":8704,"idin":8705,"ocon":8706,"ĠMCF":8707,"ĠRel":8708,"Ġcounted":8709,"Ġdisplacement":8710,"Ġchromosomal":8711,"Ġabuse":8712,"Ġimproves":8713,"infection":8714,"ING":8715,"Ġbuilding":8716,"Ġexclusively":8717,"oglyc":8718,"ĠNT":8719,"Ġtrunc":8720,"ietic":8721,"Ġflat":8722,"antitative":8723,"Ġeggs":8724,"lined":8725,"Ġdent":8726,"Ġmodule":8727,"scherichia":8728,"Ġing":8729,"Ġsept":8730,"Ġmono":8731,"Ġdosage":8732,"ĠMedicine":8733,"ĠMC":8734,"adren":8735,"Ġdriving":8736,"ĠEnglish":8737,"110":8738,"Ġminimize":8739,"Ġswitch":8740,"Ġprescribed":8741,"Ġorganism":8742,"Ġbud":8743,"versi":8744,"Ġmening":8745,"ĠMany":8746,"Ġhepar":8747,"ĠNI":8748,"Ġdimer":8749,"Ġpunc":8750,"ĠMan":8751,"Ġsugar":8752,"Ġecological":8753,"Ġintestine":8754,"Ġscoring":8755,"Ġexaminations":8756,"Ġdepartment":8757,"Ġneedle":8758,"Ġactually":8759,"Ġundertaken":8760,"Ġsera":8761,"Ġcopies":8762,"Ġhydrolysis":8763,"Ġconfiguration":8764,"rous":8765,"Ġcouns":8766,"ĠUnder":8767,"Ġpapers":8768,"Ġbelonging":8769,"alam":8770,"aker":8771,"ophilic":8772,"Ġspeech":8773,"Many":8774,"rus":8775,"Ġpump":8776,"oming":8777,"Ġobjec":8778,"family":8779,"enal":8780,"ĠFT":8781,"ĠGL":8782,"Ġinterleukin":8783,"Ġinstability":8784,"ĠAustralia":8785,"If":8786,"SL":8787,"Twenty":8788,"ĠCE":8789,"ĠGH":8790,"environment":8791,"Ġrace":8792,"ĠEl":8793,"Ġ74":8794,"PO":8795,"Ġobjects":8796,"ÂłmM":8797,"py":8798,"Ġpyl":8799,"Ġreductions":8800,"Ġcoordination":8801,"Ġcontacts":8802,"ĠNE":8803,"ĠOrgan":8804,"idering":8805,"Ġoutpatient":8806,"Ġfacility":8807,"Ġscience":8808,"Ġrecipients":8809,"ĠCRP":8810,"ĠMV":8811,"Ġexamining":8812,"Ġequally":8813,"Qu":8814,"bes":8815,"ĠSan":8816,"ĠMHC":8817,"Ġplas":8818,"Ġedema":8819,"iasis":8820,"Ġretic":8821,"istrib":8822,"phenyl":8823,"inder":8824,"Ġhold":8825,"etween":8826,"ifier":8827,"Ġ84":8828,"Ġremission":8829,"ustry":8830,"ĠMSCs":8831,"Ġprinciples":8832,"functional":8833,"Ġdisper":8834,"Ġquantum":8835,"Seq":8836,"NM":8837,"cyc":8838,"nia":8839,"arum":8840,"Ġformulation":8841,"conjugated":8842,"Ġconsistency":8843,"Ġprivate":8844,"Ġattitudes":8845,"heimer":8846,"Ġacademic":8847,"ala":8848,"iments":8849,"ĠMann":8850,"esting":8851,"Ġstudying":8852,"Ġendoscopic":8853,"effective":8854,"Tr":8855,"ora":8856,"unctions":8857,"Ġhemoglobin":8858,"GL":8859,"Ġcreatinine":8860,"Ġstream":8861,"ĠHBV":8862,"Ġinten":8863,"Ġcontributions":8864,"Ġbirds":8865,"Ġepilepsy":8866,"Ġgram":8867,"Ġexplicit":8868,"Ġrup":8869,"Ġactivating":8870,"etus":8871,"Ġtriglycer":8872,"Ġinhal":8873,"ĠASD":8874,"Ġsensing":8875,"Ġvaginal":8876,"Ġgal":8877,"Ġdegeneration":8878,"Ġseeded":8879,"Ġlactate":8880,"ovi":8881,"umina":8882,"Ġlaw":8883,"Ġdivision":8884,"plex":8885,"Ġ88":8886,"Ġdiagram":8887,"keleton":8888,"Ġstation":8889,"Ġdev":8890,"uge":8891,"Ġoligonucle":8892,"ifferenti":8893,"Ġcirrh":8894,"Ġnight":8895,"Ġcompletion":8896,"miR":8897,"acryl":8898,"âĢī>":8899,"Ġmetabolite":8900,"head":8901,"ĠSPSS":8902,"Ġdoub":8903,"Ġcust":8904,"relation":8905,"opoietic":8906,"Ġfilled":8907,"Ġborder":8908,"ologist":8909,"ĠJune":8910,"rant":8911,"Ġcoated":8912,"Ġdro":8913,"ĠMc":8914,"Col":8915,"Ġspot":8916,"ometh":8917,"Ġsubs":8918,"Ġphospholip":8919,"ĠIndex":8920,"Ġaort":8921,"Ġstock":8922,"CTs":8923,"ventive":8924,"Ġenhancing":8925,"Inter":8926,"Ġ77":8927,"lycemia":8928,"ĠPa":8929,"Ġhomology":8930,"ensor":8931,"Ġextreme":8932,"Ġcompartment":8933,"ĠmTOR":8934,"Ġlysis":8935,"Ġprinciple":8936,"yb":8937,"reed":8938,"ugin":8939,"Ġ92":8940,"Ġlysates":8941,"obacteria":8942,"Ġelimination":8943,"ĠCanada":8944,"Compared":8945,"ographical":8946,"Ġquantity":8947,"Ġmicrotub":8948,"Ġpurification":8949,"Ġproportions":8950,"Ġreaching":8951,"ĠNSCLC":8952,"ĠSpecifically":8953,"Ġcamera":8954,"ĠImportantly":8955,"Ġpall":8956,"uron":8957,"âĢīg":8958,"Ġrunning":8959,"Ġsteroid":8960,"zheimer":8961,"105":8962,"Ġocclusion":8963,"rical":8964,"Ġthresholds":8965,"lit":8966,"left":8967,"Ġdefense":8968,"Ġ1994":8969,"Ġgoals":8970,"Ġpanels":8971,".).":8972,"Ġequations":8973,"Ġdeterminants":8974,"alc":8975,"aper":8976,"ĠOD":8977,"Ġmicroorgan":8978,"Ġobservational":8979,"Additionally":8980,"Ġubiquit":8981,"Ġbic":8982,"ĠIM":8983,"Ġorb":8984,"Ġmodern":8985,"Ġsuperv":8986,"Ġserved":8987,"High":8988,"ĠAUC":8989,"rile":8990,"partic":8991,"Ġequip":8992,"Ġslope":8993,"ĠJapanese":8994,"Ġconstraints":8995,"Ġ79":8996,"Ġ83":8997,"Ġsecret":8998,"Ġparticipating":8999,"Ġgall":9000,"apop":9001,"ĠLtd":9002,"Ġcapillary":9003,"Ġcompetition":9004,"Ġsurvivors":9005,"omestic":9006,"ofl":9007,"Ġobstruction":9008,"Ġwavelength":9009,"odal":9010,"izumab":9011,"cha":9012,"weighted":9013,"Ġdissem":9014,"ITC":9015,"Ġultimately":9016,"ĠSoci":9017,"Ġindication":9018,"ĠAnimal":9019,"Ġtaxa":9020,"Ġmt":9021,"âĢĿ.":9022,"Ġethical":9023,"SEM":9024,"cr":9025,"ĠSB":9026,"ographs":9027,"Ġredox":9028,"Ġfitted":9029,"Ġpharmacokine":9030,"Immun":9031,"Ġregistered":9032,"urrents":9033,"Ġadvance":9034,"Na":9035,"raight":9036,"ĠBut":9037,"Ġunivers":9038,"Ġ82":9039,"ĠmicroM":9040,"ĠConsequently":9041,"Ġapplicable":9042,"Ġdigestion":9043,"tent":9044,"Ġ87":9045,"Ġpowerful":9046,"âĢ¦":9047,"tensive":9048,"Ġslides":9049,"Ġmachine":9050,"ixed":9051,"ĠZe":9052,"urgery":9053,"Ġmanifestations":9054,"ĠEven":9055,"uscular":9056,"Ġosteop":9057,"Ġfungi":9058,"Ġ86":9059,"Ġvalidate":9060,"what":9061,"Ġmargin":9062,"Br":9063,"Ġinver":9064,"Ġvaries":9065,"ĠRF":9066,"Ġdistant":9067,"Ġdiastolic":9068,"Ġcoating":9069,"Ġfibrin":9070,"aters":9071,"aven":9072,"Ġdeterior":9073,"Ġcausal":9074,"ysiology":9075,"shaped":9076,"Ġautomated":9077,"Ġincons":9078,"Ġsimply":9079,"Ġspent":9080,"avirus":9081,"which":9082,"affected":9083,"acillus":9084,"Ġlif":9085,"ĠSim":9086,"anger":9087,"rangement":9088,"Participants":9089,"ĠLa":9090,"Ġclosure":9091,"ĠAsian":9092,"Ġimmunofluorescence":9093,"ograft":9094,"ĠRV":9095,"Ġfocusing":9096,"Ġadapt":9097,"Ġmicroglia":9098,"Ġmatch":9099,"eterm":9100,"Ġdex":9101,"adic":9102,"Ġperman":9103,"Ġjob":9104,"Ġdepri":9105,"Ġbiopsies":9106,"Ġimmunohistochemistry":9107,"density":9108,"Ġcues":9109,"termin":9110,"Ġcontraction":9111,"âĢīÎ¼g":9112,"Ġlobe":9113,"while":9114,"Ġincident":9115,"ĠRed":9116,"Ġarg":9117,"Ġdrive":9118,"Ġbinary":9119,"ĠShe":9120,"ĠGram":9121,"Ġsubsets":9122,"Ġelucidate":9123,"unately":9124,"Ġvic":9125,"Ġelse":9126,"Ġpercentages":9127,"ĠBayes":9128,"Ġreasonable":9129,"top":9130,"oses":9131,"Ġtransporter":9132,"Ġisot":9133,"adequ":9134,"Ġetiology":9135,"Ġmoment":9136,"ault":9137,"Ġfourth":9138,"bec":9139,"uation":9140,"anic":9141,"asure":9142,"Ġextend":9143,"Ġath":9144,"ĠEscherichia":9145,"Ġ***":9146,"ĠRepresentative":9147,"Ġpowder":9148,"Ġoverlapping":9149,"Ġreturned":9150,"Ġdesired":9151,"Ġduc":9152,"urations":9153,"Ġoffered":9154,"Ġstiffness":9155,"Ġfear":9156,"ĠSamples":9157,"ĠAnd":9158,"Ġlengths":9159,"Ġpromoters":9160,"Only":9161,"ĠHPLC":9162,"Ġprotected":9163,"Ġdich":9164,"Ġlatency":9165,"Ġsediment":9166,"BG":9167,"ĠPPAR":9168,"Ġâĸ¶":9169,"Ġabol":9170,"Ġdeviations":9171,"Ġterti":9172,"cious":9173,"ĠSU":9174,"Exper":9175,"matched":9176,"rable":9177,"opol":9178,"ĠLik":9179,"Ġcyclic":9180,"Ġfertil":9181,"ĠCKD":9182,"Ġstraight":9183,"ĠMarch":9184,"ĠHeLa":9185,"Ġincomplete":9186,"LV":9187,"QR":9188,"Ġweighted":9189,"iliar":9190,"onical":9191,"ĠIll":9192,"Ġkb":9193,"lies":9194,"net":9195,"Ġdip":9196,"rene":9197,"Ġelastic":9198,"ĠAkt":9199,"asome":9200,"Ġpreserved":9201,"uclear":9202,"Ġpatch":9203,"Ġcircuit":9204,"square":9205,"four":9206,"Ġmolar":9207,"Ġsurprising":9208,"ameth":9209,"ĠCompared":9210,"Ã¼":9211,"uli":9212,"abolic":9213,"Ġstratified":9214,"DE":9215,"Ġbeh":9216,"Ġanalyzing":9217,"Ġpartner":9218,"Ġflexible":9219,"Ġcigare":9220,"Ġperhaps":9221,"Ġ81":9222,"Ġslices":9223,"lam":9224,"Ġdensities":9225,"Âł7":9226,"iaz":9227,"Ġuncom":9228,"Ġinverse":9229,"ani":9230,"ĠDAP":9231,"Ġsterile":9232,"Ġcorrectly":9233,"SF":9234,"Similar":9235,"flu":9236,"Ġtended":9237,"Ġcodes":9238,"âĢīcm":9239,"Ġscattering":9240,"Ġnucleotides":9241,"Ġregulators":9242,"Ġbuilt":9243,"Ġ),":9244,"Ġunus":9245,"ca":9246,"Ġimplants":9247,"sense":9248,"Ġscenarios":9249,"Mod":9250,"pin":9251,"Ġindustry":9252,"Ġpartly":9253,"TI":9254,"Ġgiving":9255,"ĠMyc":9256,"ĠHu":9257,"Ġobst":9258,"Ġselectively":9259,"Ġlumbar":9260,"Ġremov":9261,"Ġhemisp":9262,"Ġocular":9263,"resolution":9264,"ATA":9265,"transf":9266,"Ġanticip":9267,"Ġdissection":9268,"Ġrheum":9269,"oxygen":9270,"Ġgenerating":9271,"Ġmediators":9272,"ĠAmerica":9273,"ĠEDTA":9274,"Ġopportunities":9275,"ried":9276,"Ġ91":9277,"ĠExpression":9278,"ford":9279,"ellite":9280,"oustic":9281,"Ġsuffering":9282,"Ġoocytes":9283,"Ġanten":9284,"Ġdie":9285,"Ġ89":9286,"Ġmacro":9287,"uspended":9288,"va":9289,"Ġgenetically":9290,"iciency":9291,"Ġmammals":9292,"Ġdeposited":9293,"Ġinher":9294,"Ġwarm":9295,"Ġanne":9296,"ĠMat":9297,"ĠECM":9298,"Ġenhances":9299,"293":9300,"Ġshell":9301,"Ġcurrents":9302,"itney":9303,"process":9304,"Ġinnov":9305,"Ġatherosclerosis":9306,"earing":9307,"median":9308,"Ġgestational":9309,"Ġpremature":9310,"opy":9311,"Ġacting":9312,"Ġweb":9313,"Ġcytochrome":9314,"ĠReview":9315,"Ġconnection":9316,"Ġcomprising":9317,"ĠEthics":9318,"Ġabsorbance":9319,"DESIGN":9320,"Ġfiles":9321,"Ġsequential":9322,"viral":9323,"Ġtau":9324,"Ġstatic":9325,"ĠCox":9326,"Ġmoder":9327,"Ġcation":9328,"Ġpac":9329,"Ġbrom":9330,"Ġborn":9331,"ulph":9332,"lectro":9333,"Ġnumerical":9334,"wave":9335,"ausal":9336,"Ġadjusting":9337,"ĠAN":9338,"hai":9339,"using":9340,"imental":9341,"Ġconformational":9342,"Ġdestruc":9343,"Ġdramatically":9344,"ba":9345,"yo":9346,"ashed":9347,"003":9348,"Ġchance":9349,"ĠFR":9350,"Ġtrache":9351,"ACE":9352,"ĠmmHg":9353,"Ġdiets":9354,"Ġrecordings":9355,"omorph":9356,"Ġinoculated":9357,"sup":9358,"onuclear":9359,"ochrom":9360,"otechnology":9361,"::":9362,"uate":9363,"Ġbypass":9364,"Ġester":9365,"Ġglutathione":9366,"Ġnitric":9367,"mouse":9368,"valence":9369,"106":9370,"Ġcisplatin":9371,"Ġuterine":9372,"DF":9373,"aments":9374,"ĠCent":9375,"Ġgestation":9376,"Ġperoxidase":9377,"ECs":9378,"Total":9379,"Ġswe":9380,"Ġmind":9381,"ministration":9382,"DU":9383,"Ġregarded":9384,"Gs":9385,"Ġacidic":9386,"pril":9387,"Ġabstr":9388,"Ġamin":9389,"ynaptic":9390,"ĠImage":9391,"ĠDr":9392,"vidually":9393,"figure":9394,"BMI":9395,"ĠCpG":9396,"ĠAlzheimer":9397,"Ġafford":9398,"Str":9399,"ĠPB":9400,"Âłweeks":9401,"ophyl":9402,"Other":9403,"Ġvascul":9404,"ĠMY":9405,"Ġdecay":9406,"tisol":9407,"Ġcontinuously":9408,"regular":9409,"Ġaggregates":9410,"Ġshorten":9411,"Ġsaturation":9412,"dic":9413,"Ġmast":9414,"umm":9415,"Ġweekly":9416,"paramet":9417,"ĠRN":9418,"APDH":9419,"ĠClass":9420,"Ġhormones":9421,"tri":9422,"usive":9423,"olve":9424,"kle":9425,"Ġboys":9426,"ĠCVD":9427,"uro":9428,"Ġdomestic":9429,"endit":9430,"Ġfunctionally":9431,"opathic":9432,"GP":9433,"ĠSection":9434,"Ġallergic":9435,"Ġoverview":9436,"Ġretina":9437,"Ġseizures":9438,"Ġstudent":9439,"Ġmodest":9440,"Ġseconds":9441,"Ġelectric":9442,"Ġengagement":9443,"sed":9444,"ĠHis":9445,"ofib":9446,"ulator":9447,"Ġchi":9448,"Ġhighlights":9449,"Ġlaparoscopic":9450,"Ġfiltration":9451,"glyc":9452,"Ġtrop":9453,"Ġstrand":9454,"Ġvan":9455,"Ġcour":9456,"Ġ93":9457,"Ġcritically":9458,"Ġinstruments":9459,"Ġsuppressor":9460,"Ġaqu":9461,"Ġsenes":9462,"dial":9463,"ĠEA":9464,"ĠGST":9465,"Ġimped":9466,"Ġsymp":9467,"Ġgeneralized":9468,"Ġcultural":9469,"imet":9470,"ĠTreatment":9471,"ĠEM":9472,"ĠQTL":9473,"Ġpublications":9474,"iii":9475,"Ġinterferon":9476,"dix":9477,"driven":9478,"Ġintram":9479,"ĠLH":9480,"oblasts":9481,"Ġstrengthen":9482,"Thermo":9483,"Ġppm":9484,"Ġmer":9485,"stable":9486,"asting":9487,"Ġquin":9488,"Ġspik":9489,"Ġsplit":9490,"Ã³":9491,"Ġinherent":9492,"Ġcome":9493,"Ġimplies":9494,"Ġgovernment":9495,"Ġscaffolds":9496,"ola":9497,"ĠTC":9498,"ĠBMP":9499,"iller":9500,"Ġtrace":9501,"Ġverify":9502,"Ġbuff":9503,"Ġspermat":9504,"Ġsocioeconomic":9505,"herence":9506,"MDA":9507,"such":9508,"att":9509,"oche":9510,"Ġmoving":9511,"Ġzeb":9512,"Ġcircular":9513,"entricular":9514,"Ġstromal":9515,"ĠqPCR":9516,"Ġrain":9517,"ĠTS":9518,"ĠWil":9519,"akers":9520,"Ġglands":9521,"Ġlocally":9522,"Ġcapability":9523,"Ġschools":9524,"ĠOc":9525,"Ġphoto":9526,"Ġcomplain":9527,"Ġconcentrated":9528,"Ġdirections":9529,"ocular":9530,"ĠDisease":9531,"Ġ105":9532,"ogenes":9533,"Ġgoat":9534,"inted":9535,"allow":9536,"diab":9537,"Ġconserv":9538,"Ġ600":9539,"assay":9540,"arose":9541,"Ġmarine":9542,"Ġinteracting":9543,"Ġsearched":9544,"opausal":9545,"Ġperitoneal":9546,"Ġpelvic":9547,"Analysis":9548,"Ġheparin":9549,"ĠBar":9550,"lection":9551,"Ġoptic":9552,"Ġheld":9553,"Ġswelling":9554,"Treatment":9555,"aut":9556,"Ġemergence":9557,"Ġopioid":9558,"ĠÎ»":9559,"Ġmutagen":9560,"Ġintensities":9561,"Ġarise":9562,"inescence":9563,"Ġalteration":9564,"ĠScience":9565,"Ġaccessible":9566,"CK":9567,"Hist":9568,"Ġserine":9569,"Ġcommunic":9570,"Ġnaturally":9571,"oprot":9572,"Ġsquamous":9573,"Ġdrople":9574,"Ġdox":9575,"Ġduct":9576,"Ġ().":9577,"phone":9578,"Ġcanal":9579,"andem":9580,"Ġspecified":9581,"Ġdepicted":9582,"Ġindividually":9583,"Ġrepeats":9584,"Ġsuicide":9585,"Ġpylori":9586,"Differen":9587,"EGFR":9588,"Ġassume":9589,"Ġexcision":9590,"Ġcattle":9591,"Ġattempts":9592,"ÃŃ":9593,"inely":9594,"Ġmus":9595,"Ġprospec":9596,"Ġcharged":9597,"izer":9598,"ĠOb":9599,"Ġimmunoglob":9600,"Ġos":9601,"ĠEq":9602,"Ġdecade":9603,"Ġthrombosis":9604,"Ġelicited":9605,"Each":9606,"gamma":9607,"Ġinadequ":9608,"ewise":9609,"okines":9610,"ruct":9611,"virus":9612,"omial":9613,"Ġname":9614,"Ġnovo":9615,"ĠVi":9616,"Ġtravel":9617,"Ġconnections":9618,"tet":9619,"Ġlineages":9620,"Ġhistor":9621,"Ġepidermal":9622,"light":9623,"ulmonary":9624,"controlled":9625,"Ġthoracic":9626,"Ġcategorized":9627,"sur":9628,"olate":9629,"osan":9630,"Ġ125":9631,"ÂłÎ¼g":9632,"Ġalveolar":9633,"Ġprescription":9634,"Ġopening":9635,"Ġengineering":9636,"ĨĴ":9637,"ceed":9638,"Ġmicroscopic":9639,"rafish":9640,"Ġrecognize":9641,"ĠSubsequently":9642,"ĠModel":9643,"uginosa":9644,"matic":9645,"Ġri":9646,"Ġexpendit":9647,"Ġrecall":9648,"Ġmathematic":9649,"Ġaxial":9650,"ini":9651,"ĠDL":9652,"Ġposts":9653,"Ġpolicies":9654,"ĠAssociation":9655,"titis":9656,"Ġconcepts":9657,"ENT":9658,"Ġequipment":9659,"Ġanch":9660,"Ġbis":9661,"forming":9662,"Ġlifetime":9663,"Ġkeratin":9664,"Ġpassive":9665,"Ġdu":9666,"ĠBAL":9667,"Ġindustrial":9668,"Ġvar":9669,"ĠHL":9670,"Ġperceptions":9671,"ĠGW":9672,"Ġinteracts":9673,"Ġhepatocytes":9674,"Ġhomogeneous":9675,"ĠmAb":9676,"ider":9677,"idae":9678,"ĠPEG":9679,"Ġmanaged":9680,"Ġevoked":9681,"ĠBiosci":9682,"Ġconsequently":9683,"Ġflies":9684,"PM":9685,"Ġgels":9686,"Ġtriggered":9687,"Ġfront":9688,"Ġdiminished":9689,"Sur":9690,"Ġtro":9691,"oluble":9692,"atile":9693,"Ġarrows":9694,"Ġwithdrawal":9695,"diagn":9696,"ional":9697,"Ġretrospectively":9698,"Ġtracking":9699,"Ġparadigm":9700,"ĠSociety":9701,"Ã¯":9702,"ĠOs":9703,"Ġcentre":9704,"Ġ(âĪĴ":9705,"Ġsignature":9706,"Ġsegreg":9707,"Ġturnover":9708,"Ġcovariates":9709,"More":9710,"iers":9711,"oic":9712,"Ġtor":9713,"Ġpicture":9714,"ĠAug":9715,"Ġprecipit":9716,"Ġteaching":9717,"ĠFrance":9718,"Ġsun":9719,"Ġnurse":9720,"olus":9721,"urk":9722,"Ġopin":9723,"Ġlymphocyte":9724,"AN":9725,"oxin":9726,"nea":9727,"Ġesc":9728,"hour":9729,"Ġserot":9730,"phosphor":9731,"Ġtranscriptome":9732,"Ġannotation":9733,"ĠEd":9734,"DT":9735,"cons":9736,"ĠTri":9737,"Ġcorro":9738,"Ġnormalization":9739,"Ġshear":9740,"Ġmesenchymal":9741,"Ġbrown":9742,"Ġempt":9743,"Group":9744,"ago":9745,"peritoneal":9746,"Ġmandi":9747,"coated":9748,"Ġnanoc":9749,"fortunately":9750,"Ġhabitat":9751,"Ġhelpful":9752,"Ġangiography":9753,"Whitney":9754,"making":9755,"Ġbring":9756,"oderm":9757,"Ġactivates":9758,"Ġsupplementary":9759,"Ġethnic":9760,"ĠKorea":9761,"local":9762,"ĠTe":9763,"Ġphage":9764,"eptember":9765,"Ġbearing":9766,"Ġenvelop":9767,"Ġmodulated":9768,"timal":9769,"Ġdecom":9770,"Ġserial":9771,"Ġtumorigen":9772,"Ġexcretion":9773,"Ġcrude":9774,"Ġmixtures":9775,"ĠCOX":9776,"Ġmyeloid":9777,"ĠNotably":9778,"frequency":9779,"oir":9780,"Ġbig":9781,"Ġhosts":9782,"Ġresponded":9783,"Ġinputs":9784,"Ġclarify":9785,"inform":9786,"Ġlam":9787,"Ġgait":9788,"traction":9789,"Ġanemia":9790,"ilarities":9791,"tober":9792,"Under":9793,"Ġtransmembrane":9794,"MW":9795,"Ġstain":9796,"Ġclinics":9797,"Ġmicroenvironment":9798,"Ġdescribing":9799,"Ġassayed":9800,"Ġbuild":9801,"Ġoperative":9802,"Ġseverely":9803,"Ġcrystals":9804,"Ġannotated":9805,"Ġtertiary":9806,"NE":9807,"Ġinactive":9808,"Ġexposures":9809,"Ġflank":9810,"Ġ1993":9811,"osynthetic":9812,"Ġfetus":9813,"130":9814,"Ġhomozygous":9815,"athetic":9816,"gov":9817,"ĠcAMP":9818,"Ġimmunization":9819,"ocyan":9820,"augh":9821,"ĠGTP":9822,"Ġmutated":9823,"obacterium":9824,"arse":9825,"Ġhall":9826,"ĠGreen":9827,"ĠHEK":9828,"tem":9829,"Ġfif":9830,"Ġbin":9831,"Ġrefer":9832,"eptides":9833,"Ġreflecting":9834,"emporal":9835,"MATERIALS":9836,"alamus":9837,"HCl":9838,"ĠTT":9839,"apes":9840,"Ġunrelated":9841,"Ġthorough":9842,"dl":9843,"ustered":9844,"Ġradial":9845,"Sch":9846,"Ġson":9847,"idium":9848,"unk":9849,"Ġrecover":9850,"monella":9851,"ĠJuly":9852,"Ġportal":9853,"Ġoccupational":9854,"ĠDO":9855,"rontal":9856,"Ġcutaneous":9857,"Ġaeruginosa":9858,"Ġcontig":9859,"oney":9860,"ĠVari":9861,"Ġpolarization":9862,"rotic":9863,"ĠTest":9864,"atibility":9865,"Ġatrophy":9866,"116":9867,"Ġadditive":9868,"ĠPan":9869,"Ġrepeti":9870,"Ġeventually":9871,"Ġneutrophil":9872,"apoptotic":9873,"Over":9874,"ptic":9875,"Ġsand":9876,"Ġdot":9877,"ĠApril":9878,"Ġgrouped":9879,"Ġarms":9880,"exts":9881,"armac":9882,"Ġpsychos":9883,"Ġcolonization":9884,"Ġcarbohydrate":9885,"nis":9886,"Ġsubmitted":9887,"Ġarb":9888,"regn":9889,"HE":9890,"Ob":9891,"site":9892,"Ġgyr":9893,"pler":9894,"Ġsea":9895,"Ġplatelets":9896,"Ġconfirming":9897,"ĠSciences":9898,"Ġroutinely":9899,"ositive":9900,"urable":9901,"duct":9902,"Ġviews":9903,"Ġsilica":9904,"yclonal":9905,"band":9906,"inase":9907,"reactive":9908,"osing":9909,"Ġwashing":9910,"ĠBA":9911,"Ġcoinc":9912,"Ġyour":9913,"Ġsomewhat":9914,"Ġgeographic":9915,"tially":9916,"Ġworth":9917,"Ġwarran":9918,"Ġtrypsin":9919,"oplasmic":9920,"Ġdivergence":9921,"Ġelongation":9922,"Ġmism":9923,"Ġimmunoblot":9924,"Ġradius":9925,"Ġheterozygous":9926,"ĠHbA":9927,"Ġnom":9928,"ocellular":9929,"ĠPe":9930,"Ġusual":9931,"ĠFBS":9932,"Ġagric":9933,"Ġconsumed":9934,"feeding":9935,"Ġassist":9936,"Ġtranspl":9937,"Ġmir":9938,"ĠTRP":9939,"Ġtestosterone":9940,"Ġachieving":9941,"Ġport":9942,"Ġmodalities":9943,"Ġmicroorganisms":9944,"Ġhoc":9945,"ĠFGF":9946,"ience":9947,"Ġpostnatal":9948,"Ġcorticoster":9949,"ractory":9950,"Ġmood":9951,"Ġexec":9952,"illa":9953,"Ġsystematically":9954,"Ġprecursors":9955,"Ġcaregivers":9956,"agg":9957,"rices":9958,"fficiently":9959,"Significant":9960,"hyper":9961,"lated":9962,"ultiv":9963,"ĠLife":9964,"Ġmetals":9965,"Ġwells":9966,"Ġprofiling":9967,"Ġdeficient":9968,"Ġlibraries":9969,"Given":9970,"Ġintense":9971,"Ġmicrogram":9972,"Ġlabel":9973,"stein":9974,"Ġchemicals":9975,"Ġnamed":9976,"otensin":9977,"004":9978,"Ġultra":9979,"Ġhot":9980,"elles":9981,"orer":9982,"âĢī.":9983,"Ġvisualization":9984,"otoxin":9985,"Ġmalignancies":9986,"del":9987,"axel":9988,"Ġdissociation":9989,"Ġbranches":9990,"Ġprogenitor":9991,"HIV":9992,"ĠPU":9993,"Ġatypical":9994,"ĠRB":9995,"Man":9996,"ya":9997,"aseline":9998,"omotor":9999,"Âłnm":10000,"Ġpopular":10001,"Ġ180":10002,"mentioned":10003,"First":10004,"ashion":10005,"Ġcompeting":10006,"Ġcustom":10007,"cadherin":10008,"hospital":10009,"Ġma":10010,"Ġreward":10011,"ĠIT":10012,"trac":10013,"Ġtriplicate":10014,"ĠqRT":10015,"ĠNotch":10016,"ocortic":10017,"Âłcm":10018,"Ġinstitution":10019,"Ġmimic":10020,"Ġcirrhosis":10021,"agul":10022,"Ġperfor":10023,"Ġends":10024,"Ġexclude":10025,"rocyte":10026,"Recently":10027,"ĠRam":10028,"ĠEB":10029,"ionic":10030,"Ġglycerol":10031,"Ġthink":10032,"Ġundere":10033,"Ġarrays":10034,"ophore":10035,"otoxicity":10036,"ysaccharide":10037,"ptions":10038,"Ġpreventive":10039,"ĠBMD":10040,"itig":10041,"Ġdiscrete":10042,"Ġinfluencing":10043,"....":10044,"Ġanaesthe":10045,"ÂłÃĹ":10046,"Ġaccumulated":10047,"iplinary":10048,"Ġhydroxyl":10049,"ĠLaboratory":10050,"MAP":10051,"âĢ¢":10052,"ading":10053,"rained":10054,"Ġimmunoprec":10055,"Ġtransitions":10056,"Ġconfounding":10057,"Ġaorta":10058,"standard":10059,"ophen":10060,"choline":10061,"Ġformat":10062,"Ġencodes":10063,"Ġirregular":10064,"lectron":10065,"hab":10066,"eces":10067,"ĠAsia":10068,"Ġchim":10069,"Ġ106":10070,"ergies":10071,"Ġjus":10072,"da":10073,"wan":10074,"Ġcascade":10075,"bodies":10076,"Ġbab":10077,"Ġnonlinear":10078,"Ġattend":10079,"Ġangles":10080,"Ġfitting":10081,"Ġdeclare":10082,"Bank":10083,"Rad":10084,"fat":10085,"Ġshed":10086,"ĠGe":10087,"Figs":10088,"Ġalkaline":10089,"Ġendometrial":10090,"Ã¯ve":10091,"]-":10092,"che":10093,"oler":10094,"phthal":10095,"Ġdiarr":10096,"Ġglycoprotein":10097,"ulos":10098,"ĠOut":10099,"Ġflap":10100,"Ġlook":10101,"sessment":10102,"Ġpent":10103,"Ġnecessarily":10104,"Ġdoctors":10105,"itic":10106,"Ġexert":10107,"ĠIU":10108,"Ġoperations":10109,"ĠÂµl":10110,"Ġcarcinomas":10111,"Ġwaves":10112,"Ġfashion":10113,"Ġesophageal":10114,"Ġpredis":10115,"Ġconstitute":10116,"Methods":10117,"utable":10118,"agon":10119,"ĠFigures":10120,"Ġprecipitation":10121,"Ġanticancer":10122,"Ġinstitutional":10123,"log":10124,"ĠTCR":10125,"ectable":10126,"Ġindications":10127,"Ġinsurance":10128,"133":10129,"Ġcysteine":10130,"Ġquickly":10131,"titial":10132,"Ġtransmitted":10133,"Ġpeer":10134,"ervoir":10135,"Ġdeclined":10136,"Ġretrieved":10137,"atidyl":10138,"dividual":10139,"Ġdiffraction":10140,"Ġamel":10141,"Ġantagonists":10142,"ĠDCs":10143,"Ġworks":10144,"Ġblockade":10145,"Ġleptin":10146,"Ġelsewhere":10147,"Ġinsect":10148,"CMV":10149,"Ġmammary":10150,"Ġflexibility":10151,"Ġcytosolic":10152,"rd":10153,"Ġmeat":10154,"Ġanaer":10155,"oblastoma":10156,"Ġpermanent":10157,"ki":10158,"ras":10159,"vit":10160,"ĠmV":10161,"ĠEMT":10162,"ocket":10163,"Ġimmunosupp":10164,"Ġrejection":10165,"Ġreversible":10166,"Ġcyan":10167,"istribution":10168,"lact":10169,"rank":10170,"Ġpractitioners":10171,"]),":10172,"fib":10173,"iled":10174,"ĠKi":10175,"radiol":10176,"igher":10177,"ĠAG":10178,"Ġbegan":10179,"ĠDP":10180,"Ġinvestigators":10181,"ococcal":10182,"patients":10183,"Ġ/":10184,"rared":10185,"advant":10186,"âĢī5":10187,"ails":10188,"Ġoxidase":10189,"Ġherb":10190,"Ġattractive":10191,"Ġglioma":10192,"Ġmeaningful":10193,"Ġadrenal":10194,"itors":10195,"ationally":10196,"randed":10197,"Ġclustered":10198,"ERK":10199,"Ġillustrate":10200,"olving":10201,"Ġscaven":10202,"Ġevolved":10203,"Ġnano":10204,"Ġmanipulation":10205,"Ġreferral":10206,"Ġpreterm":10207,"Ġantiviral":10208,"Ġfu":10209,"Ġblast":10210,"Ġstabilization":10211,"Ġzebrafish":10212,"Ġcity":10213,"ĠSK":10214,"Ġstructured":10215,"âĢīk":10216,"uality":10217,"CTION":10218,"Ġgeometry":10219,"Ġpreferences":10220,"ĠRecent":10221,"Ġderivative":10222,"DO":10223,"Ġbor":10224,"directed":10225,"Ġheating":10226,"Ġspike":10227,"Ġdispersion":10228,"Ġdeform":10229,"Ġinterc":10230,"ruz":10231,"utrition":10232,"rc":10233,"Ġcamp":10234,"Ġcomorbidities":10235,"bilities":10236,"five":10237,"asonal":10238,"Ġcortisol":10239,"Ġambi":10240,"Another":10241,"Ġadolescent":10242,"Ġcarefully":10243,"bone":10244,"hydr":10245,"ĠCAD":10246,"quar":10247,"Ġrules":10248,"uestion":10249,"Ġagonists":10250,"Ġenabled":10251,"Ġbehind":10252,"Ġresemb":10253,"Ġresuspended":10254,"ĠNext":10255,"assemb":10256,"âĢ¯0":10257,"Studies":10258,"ĠSte":10259,"chain":10260,"ĠZh":10261,"Ġedges":10262,"Val":10263,"tte":10264,"Ġprovision":10265,"ĠSeptember":10266,"Ġneighbor":10267,"Ġpercenti":10268,"2000":10269,"Ġhors":10270,"operation":10271,"Ġplanned":10272,"Ġoccasion":10273,"Ġhematopoietic":10274,"lege":10275,"uled":10276,"ĠBSA":10277,"Ġsubpop":10278,"ountered":10279,"Ġfibrill":10280,"roid":10281,"Ġobtaining":10282,"Ġactivator":10283,"Ġflag":10284,"Ġ1992":10285,"onit":10286,"Ġyouth":10287,"angle":10288,"Ġosteopor":10289,"Ġcystic":10290,"alateral":10291,"Ġbases":10292,"car":10293,"nR":10294,"vin":10295,"ellum":10296,"Ġleuc":10297,"Ġaxons":10298,"Ġpressures":10299,"Ġunusual":10300,"ĠOctober":10301,"ĠBon":10302,"Âłk":10303,"Ġdownregulation":10304,"Ġchecked":10305,"549":10306,"iation":10307,"significant":10308,"icts":10309,"Ġendocrine":10310,"Ġencountered":10311,"Ġmagnification":10312,"Ġinterfere":10313,"Ġlandsc":10314,"ĠPo":10315,"ĠPearson":10316,"Ġexperts":10317,"CAG":10318,"Ġchemistry":10319,"Ġsheep":10320,"Ġtendon":10321,"Ġaerobic":10322,"Ġdrainage":10323,"Human":10324,"otine":10325,"astom":10326,"ĠVL":10327,"ĠVer":10328,"Ġuncon":10329,"Ġdosing":10330,"ĠÏĩ":10331,"Ġinstitutions":10332,"onymous":10333,"Ġaromatic":10334,"anish":10335,"ĠPt":10336,"itudes":10337,"Ġconjugated":10338,"haus":10339,"Ġdyst":10340,"osyl":10341,"imb":10342,"ĠAlex":10343,"Ġscal":10344,"Ġhypertrophy":10345,"',":10346,"tium":10347,"Ġimmunost":10348,"Ġmatrices":10349,"yel":10350,"Ġresin":10351,"ĠHSP":10352,"ĠInd":10353,"Ġbios":10354,"Ġswitching":10355,"Ġsalivary":10356,"aplan":10357,"cardi":10358,"ille":10359,"Ġvox":10360,"ĠSign":10361,"ĠPb":10362,"etherlands":10363,"Ġcatalyst":10364,"tagged":10365,"Ġfair":10366,"ĠLou":10367,"Ġagarose":10368,"Ġdisplays":10369,"Ġstomach":10370,"RE":10371,"iro":10372,"Ġds":10373,"anges":10374,"103":10375,"Ġrestored":10376,"Ġhypotheses":10377,"ortion":10378,"Ġreservoir":10379,"Ġmarginal":10380,"Ġvertebr":10381,"Ġremarkable":10382,"âĢīs":10383,"Ġunaffected":10384,"existing":10385,"Ġmobil":10386,"ĠSalmonella":10387,"Cr":10388,"phen":10389,"itch":10390,"Ġtranscribed":10391,"Ġsimilarities":10392,"yces":10393,"ĠRho":10394,"Ġsurgeons":10395,"Effec":10396,"cam":10397,"Ġpg":10398,"ĠDI":10399,"ĠNY":10400,"ĠLabor":10401,"aze":10402,"static":10403,"Ġpolyclonal":10404,"black":10405,"Ġassembled":10406,"pot":10407,"iding":10408,"ĠIran":10409,"Ġdead":10410,"Âłs":10411,"Ġphenyl":10412,"Ġagreed":10413,"Ġpromotion":10414,"ĠAng":10415,"Ġsuperf":10416,"ĠDMEM":10417,"only":10418,"edical":10419,"Ġfist":10420,"ilent":10421,"ilst":10422,"ensory":10423,"Ġlinks":10424,"Ġperic":10425,"TSD":10426,"Ġequipped":10427,"ĠPKC":10428,"itability":10429,"fficiency":10430,"UTR":10431,"inin":10432,"Ġanis":10433,"Ġfulf":10434,"ĠTheir":10435,"Ġneoplasm":10436,"Ġhypog":10437,"231":10438,"Ġutilizing":10439,"Ġlosses":10440,"house":10441,"Âł.":10442,"Ġaccounts":10443,"ĠConsistent":10444,"Ġfused":10445,"opia":10446,"Ġdisadvant":10447,"Ġshoulder":10448,"ETHOD":10449,"Ġgraphene":10450,"ka":10451,"ĠMac":10452,"Ġspots":10453,"ĠRNAi":10454,"Ġcontroversi":10455,"uster":10456,"Ġnoc":10457,"ĠPCA":10458,"ostatic":10459,"ĠEnd":10460,"Ġpersistence":10461,"Ġsacr":10462,"ĠPBM":10463,"ĠMor":10464,"ĠOF":10465,"Ġvaccin":10466,"lipid":10467,"Li":10468,"Ġwors":10469,"iger":10470,"Ġtraumatic":10471,"ĠGy":10472,"oplasty":10473,"Ġpancreas":10474,"NL":10475,"nit":10476,"pp":10477,"ĠRab":10478,"formin":10479,"Ġconcurrent":10480,"Ġvisc":10481,"Ġconstants":10482,"Second":10483,"ris":10484,"ux":10485,"odil":10486,"Ġpolymers":10487,"Ġpenicillin":10488,"Ġurea":10489,"ĠCyt":10490,"Ġdetector":10491,"Ġleaders":10492,"Interestingly":10493,"rophot":10494,"Ġdelta":10495,"Ġintended":10496,"Ġarrhyth":10497,"Ġcyclin":10498,"ĠADHD":10499,"Ġlatent":10500,"Ġaccounting":10501,"Ġunderestim":10502,"box":10503,"Ġmodality":10504,"assisted":10505,"Ġrefine":10506,"Ġintegrin":10507,"Ġratings":10508,"Ġfri":10509,"Ġrefers":10510,"Ġsynergistic":10511,"path":10512,"oppler":10513,"ĠGlu":10514,"Ġproliferative":10515,"tified":10516,"tailed":10517,"iagen":10518,"lif":10519,"Ġcot":10520,"ĠSY":10521,"azine":10522,"Ġoriginally":10523,"Ġsuperoxide":10524,"Ġimplanted":10525,"igu":10526,"Ġslower":10527,"Ġuniversal":10528,"Ġfiring":10529,"Ġnotion":10530,"velopment":10531,"ĠState":10532,"Ġencaps":10533,"Ġreagents":10534,"Ġmetrics":10535,"Ġfelt":10536,"Ġmodules":10537,"eptive":10538,"Ġhypers":10539,"Ġminute":10540,"Ġplayed":10541,"Ġspecialized":10542,"she":10543,"Ġcos":10544,"Ġatomic":10545,"actors":10546,"Ġrectal":10547,"Ġxyl":10548,"Ġgrid":10549,"Ġsupernatants":10550,"ĠHist":10551,"oto":10552,"know":10553,"Ġnutrients":10554,"Ġadenosine":10555,"Ġapparently":10556,"ĠBRCA":10557,"Ġcontroversial":10558,"Ġ(+":10559,"uls":10560,"ĠHa":10561,"phrine":10562,"cine":10563,"antif":10564,"âĢīmL":10565,"ituitary":10566,"Ġintroduce":10567,"Ġdense":10568,"arval":10569,"Ġperm":10570,"ĠLys":10571,"Ġarri":10572,"Ġelectroly":10573,"Ġantico":10574,"Ġcompetitive":10575,"hi":10576,"la":10577,"Ġtick":10578,"Ġhistology":10579,"RODU":10580,"opathology":10581,"Ġhaplotype":10582,"jun":10583,"Ġgained":10584,"Ġbiotin":10585,"Ġformulations":10586,"Ġessentially":10587,"RAF":10588,"Ġcreating":10589,"ĠCXCL":10590,"alamic":10591,"Ġdrought":10592,"Ġincision":10593,"Ġjoints":10594,"ĠCam":10595,"ĠUse":10596,"ologically":10597,"Ġmeeting":10598,"RODUCTION":10599,"BT":10600,"Following":10601,"ï¼":10602,"Ġbund":10603,"elve":10604,"ocor":10605,"Ġparal":10606,"ĠLS":10607,"Ġentered":10608,"ĠHDAC":10609,"Ġanswer":10610,"ĠAugust":10611,"RF":10612,"sided":10613,"Ġnitr":10614,"imals":10615,"Ġacoustic":10616,"ploid":10617,"ĠDE":10618,"Ġcontrary":10619,"Ġcontralateral":10620,"Ġmixing":10621,"Ġcircumst":10622,"INTRODUCTION":10623,"Ġascer":10624,"Ġwebs":10625,"Ġcovers":10626,"Ġpotency":10627,"Ġinsec":10628,"blast":10629,"Ġtopic":10630,"Ġcats":10631,"ky":10632,"Ġ(~":10633,"ĠTaken":10634,"ĠSOD":10635,"ĠWest":10636,"Ġexpert":10637,"ethylene":10638,"Ġemphasis":10639,"Ġinadequate":10640,"Ġfasc":10641,"olone":10642,"Ġchose":10643,"ĠNetherlands":10644,"paratus":10645,"Ġbehavioural":10646,"Ġreplicate":10647,"Ġpsychosocial":10648,"Ws":10649,"Ġgaps":10650,"Ġapo":10651,"Ġplacent":10652,"Ġscope":10653,"Ġscrew":10654,"Ġhyperg":10655,"disciplinary":10656,"Ġfoci":10657,"Ġlith":10658,"Ġimag":10659,"ducts":10660,"ival":10661,"astern":10662,"umor":10663,"Ġbecoming":10664,"Ġeliminate":10665,"LF":10666,"rating":10667,"piratory":10668,"enn":10669,"Ġlign":10670,"ĠBiosystems":10671,"Ġcaud":10672,"Post":10673,"ĠTI":10674,"Ġcommittee":10675,"ĠPseud":10676,"ubicin":10677,"ĠDat":10678,"Ġparaffin":10679,"oides":10680,"responsive":10681,"Ġfermentation":10682,"Ġmoderately":10683,"Glu":10684,"iant":10685,"Ġmitig":10686,"Ġlac":10687,"Ġlag":10688,"formance":10689,"ĠUl":10690,"104":10691,"Ġsegmentation":10692,"modified":10693,"Life":10694,"ucleotide":10695,"Ġpseudo":10696,"Ġimmunohistochemical":10697,"LE":10698,"heric":10699,"ĠVA":10700,"âĢīÎ¼M":10701,"ĠDiagn":10702,"Ġdeprivation":10703,"ĠLouis":10704,"gone":10705,"stained":10706,"ĠSCI":10707,"Ġgenera":10708,"Ġfragmentation":10709,"Ġintracranial":10710,"organic":10711,"Ġflavon":10712,"Ġbipolar":10713,"Sup":10714,"oyl":10715,"umer":10716,"Ġactively":10717,"Ġstresses":10718,"Ġslowly":10719,"Ġtelomere":10720,"asone":10721,"ĠMN":10722,"echanical":10723,"ftware":10724,"Ġviewed":10725,"Ġcolumns":10726,"Ġvill":10727,"ĠAML":10728,"ĠDel":10729,"ĠECG":10730,"Ġunivariate":10731,"Ġmanually":10732,"Ġpharmaceutical":10733,"Ġfibroblast":10734,"Ġaccompl":10735,"Ġobjectives":10736,"uestionnai":10737,"Ġseasonal":10738,"ĠRS":10739,"ĠRES":10740,"Anti":10741,"Ġtopical":10742,"Ġphysiology":10743,"ĠAccordingly":10744,"PF":10745,"otub":10746,"Ġargin":10747,"Ġdesignated":10748,"Ġanthrop":10749,"ĠPost":10750,"ĠROC":10751,"tism":10752,"Ġsufficiently":10753,"Ġemotion":10754,"tilled":10755,"Ġnitro":10756,"Ġproinflammatory":10757,"ĠIBD":10758,"ĠProgram":10759,"Ġunexpected":10760,"fall":10761,"vidence":10762,"Ġfigures":10763,"Ġadsorb":10764,"ĠBayesian":10765,"arts":10766,"Ġnodules":10767,"ĠRI":10768,"Ġintere":10769,"Ġpollution":10770,"blind":10771,"gestion":10772,"Ġinoculation":10773,"Ġchicken":10774,"Ġambient":10775,"OM":10776,"Ġconv":10777,"Ġpreclinical":10778,"ĠBesides":10779,"neys":10780,"Ġconceptual":10781,"Ġaberrant":10782,"ĠSG":10783,"rior":10784,"ĠGo":10785,"Ġunilateral":10786,"Ġdamaged":10787,"depress":10788,"Ġpneumoniae":10789,"âĢī4":10790,"entists":10791,"ians":10792,"Ġphospho":10793,"Ġfavour":10794,"acental":10795,"Ġevidenced":10796,"Ġcycling":10797,"Ġassumptions":10798,"BE":10799,"ĠTK":10800,"quality":10801,"oxacin":10802,"inance":10803,"ĠEF":10804,"Ġantitumor":10805,"Ġmitotic":10806,"Ġteac":10807,"Ġretrieval":10808,"Ġmotivation":10809,"Ġdescriptive":10810,"Ġhierarchical":10811,"elen":10812,"Ġrecons":10813,"Ġsynovi":10814,"parts":10815,"ĠIgE":10816,"âĢīÎ¼m":10817,"Ġremoving":10818,"inea":10819,"Ġprevents":10820,"ĠNL":10821,"Ġidi":10822,"posure":10823,"NTs":10824,"Ġventricle":10825,"Ġconservative":10826,"Ġsacrific":10827,"WI":10828,"Ġworm":10829,"Ġtransp":10830,"Ġestablishment":10831,"Ġvirtual":10832,"Ġrescue":10833,")),":10834,"hom":10835,"ĠACT":10836,"Ġlethal":10837,"ylate":10838,"Ġapprec":10839,"Ġattempted":10840,"centr":10841,"hep":10842,"ĠCCR":10843,"ĠCCL":10844,"Ġserves":10845,"Ġintraoperative":10846,"Si":10847,"ediatric":10848,"ĠFc":10849,"ĠFox":10850,"Ġentit":10851,"Ġabilities":10852,"Ġspind":10853,"Ġmediating":10854,"Ġtransfusion":10855,"riton":10856,"Ġfluctuations":10857,"Ġglomerular":10858,"ĠLaboratories":10859,"mb":10860,"Ġrevision":10861,"herical":10862,"ĠEG":10863,"Ġapparatus":10864,"Ġdrink":10865,"Ġvulnerable":10866,"Cu":10867,"Ġhol":10868,"respec":10869,"quencing":10870,"ompass":10871,"Ġwider":10872,"Ġtetra":10873,"glucose":10874,"Ġtrajectory":10875,"ĠCruz":10876,"ĠLB":10877,"Ġundergone":10878,"forward":10879,"Ġseizure":10880,"NMR":10881,"Ġimmuno":10882,"SPR":10883,"Ġhypoxic":10884,"Ġrheumat":10885,"New":10886,"hand":10887,"health":10888,"ĠGal":10889,"Ġendothelium":10890,"Ġmesh":10891,"Ġrhythm":10892,"METHOD":10893,"pine":10894,"Ġfatal":10895,"Ġfecal":10896,"idation":10897,"ĠTN":10898,"ublished":10899,"orty":10900,"atinib":10901,"Ġimmunoglobulin":10902,"Ġrandomised":10903,"ruvate":10904,"letes":10905,"Ġlattice":10906,"ĠCollege":10907,"psych":10908,"udden":10909,"Ġinferred":10910,"ĠLip":10911,"ressor":10912,"Ġdemands":10913,"Ġlesser":10914,"odef":10915,"Ġcarboxyl":10916,"Ġsclerosis":10917,"Ġcloser":10918,"Ġpolymerization":10919,"ĠTechnology":10920,"Ġcompartments":10921,"Ġsenescence":10922,"Ġdiarrhea":10923,"Non":10924,"polar":10925,"Ġconscious":10926,"Ġendemic":10927,"Ġglauc":10928,"Ġfaces":10929,"250":10930,"Ġanastom":10931,"osc":10932,"ĠOP":10933,"Ġionic":10934,"ĠServ":10935,"Ġremote":10936,"2010":10937,"Ġowing":10938,"Ġrabbits":10939,"Ġpathophysiology":10940,"amil":10941,"Ġchor":10942,"ĠEast":10943,"producing":10944,"aussian":10945,"Ġcircadian":10946,"Ġcoordinates":10947,"Ġleakage":10948,"ĠItaly":10949,"cancer":10950,"ĠGSH":10951,"Ġunstable":10952,"Ġpituitary":10953,"Ġmodeled":10954,"Ġcounting":10955,"Ġfamiliar":10956,"Ġ1991":10957,"Ġelectrochemical":10958,"Ġattributable":10959,"Ġaccelerated":10960,"Ġubiquitin":10961,"Ġmouth":10962,"agic":10963,"plastic":10964,"Ġcanonical":10965,"Ġspring":10966,"Ġbrains":10967,"MV":10968,"ĠDes":10969,"Ġmeal":10970,"Ġbreed":10971,"Ġneurodegenerative":10972,"Gal":10973,"Micro":10974,"dentif":10975,"Ġexons":10976,"rapy":10977,"Ġindicative":10978,"ielding":10979,"Ġzones":10980,"Ġencompass":10981,"Meier":10982,"Ġpreferentially":10983,"Ġmaize":10984,"sa":10985,"vac":10986,"Ġsharing":10987,"âĢīyears":10988,"Ġverbal":10989,"Thirty":10990,"IFN":10991,"Ġindirectly":10992,"DOC":10993,"ĠTRI":10994,"ĠHer":10995,"Ġcircles":10996,"Ġdeficit":10997,"ĠBel":10998,"Ġneurotrans":10999,"Ġcommercially":11000,"ructure":11001,"Ġrupture":11002,"Ġdestruction":11003,"Os":11004,"ĠGAPDH":11005,"roni":11006,"Ġantibacterial":11007,"upplemental":11008,"Ġsilver":11009,"ĠOrganization":11010,"eries":11011,"aturation":11012,"romycin":11013,"ĠMa":11014,"2012":11015,"Ġsurgeon":11016,"glycer":11017,"Ġwood":11018,"osus":11019,"iforn":11020,"Ġpari":11021,"Ġmodify":11022,"ender":11023,"ĠConversely":11024,"ĠIgM":11025,"Ġframes":11026,"Ġabolished":11027,"Ġgyrus":11028,"ĠMET":11029,"ionine":11030,"astatin":11031,"Ġcolitis":11032,"ATI":11033,"Ġtiters":11034,"bach":11035,"006":11036,"Ġcompatible":11037,"ĠNet":11038,"Ġ104":11039,"ĠThird":11040,"Ġproductivity":11041,"Ġprophylaxis":11042,"AV":11043,"Prim":11044,"Ġont":11045,"Ġelucidated":11046,"Ġbreathing":11047,"Abs":11048,"Ġwinter":11049,"oric":11050,"epit":11051,"represent":11052,"circ":11053,"Ġile":11054,"Ġpyr":11055,"Ġvast":11056,"ĠSn":11057,"Ġconductivity":11058,"Ġwalls":11059,"Ġbroader":11060,"ĠmtDNA":11061,"strap":11062,"ously":11063,"Ġevaluations":11064,"ĠStre":11065,"Ġhistopathological":11066,"Ġtrafficking":11067,"ĠMHz":11068,"ĠFF":11069,"Ġpoorer":11070,"ulty":11071,"Ġoperated":11072,"Ġepidemic":11073,"Comparison":11074,"Ġproximity":11075,"Ġtransporters":11076,"Ġpenetration":11077,"Ġpresumably":11078,"rot":11079,"rench":11080,"Ġtrajectories":11081,"KK":11082,"WS":11083,"Ġcysts":11084,"Ġapart":11085,"valuation":11086,"Ġprofound":11087,"Ġdiffers":11088,"Ġmuscular":11089,"Ġembol":11090,"affe":11091,"Ġtolerated":11092,"Ġwr":11093,"atosis":11094,"Ġlarval":11095,"three":11096,"Ġrefractory":11097,"Ġinitiate":11098,"score":11099,"Ġheadache":11100,"Ġepiderm":11101,"Ġasymmetric":11102,"layer":11103,"urc":11104,"ĠCy":11105,"aternal":11106,"Ġglial":11107,"ferroni":11108,"borne":11109,"expressed":11110,"Ġmounted":11111,"ires":11112,"encephal":11113,"Ġarising":11114,"Ġbehaviours":11115,"Ġsuperficial":11116,"molecular":11117,"rf":11118,"Ġrely":11119,"ĠCentral":11120,"partum":11121,"Ġmechanistic":11122,"Ġregistration":11123,"HV":11124,"ishes":11125,"Ġgrey":11126,"ĠFOX":11127,"phot":11128,"Ġuniversity":11129,"ĠThat":11130,"Ġstir":11131,"Ġpregnancies":11132,"Ġrespiration":11133,"Ġamelior":11134,"Ġinterests":11135,"called":11136,"Ġlic":11137,"odial":11138,"ĠCRI":11139,"ĠHB":11140,"Ġethics":11141,"Ġirradiated":11142,"OA":11143,"asi":11144,"Ġantidepress":11145,"Ġmanage":11146,"Ġneurom":11147,"Ġosteocl":11148,"ĠSurvey":11149,"Ġaneurysm":11150,"Ġbeliefs":11151,"Ġsector":11152,"Ġago":11153,"visiae":11154,"Ġkinds":11155,"ĠBiosciences":11156,"Five":11157,"Vari":11158,"ĠÂ":11159,"ĠDoppler":11160,"Ġtransmit":11161,"Ġmethodological":11162,"anner":11163,"Ġtubular":11164,"Ġoverexpressed":11165,"Ġserotonin":11166,"Ġencephal":11167,"Ġeukaryotic":11168,"Rel":11169,"bearing":11170,"zes":11171,"Ġfolding":11172,"Ġreflex":11173,"Ġhypertensive":11174,"Ġdistinguished":11175,"Ġlaboratories":11176,"Pol":11177,"cein":11178,"Ġchron":11179,"ersonal":11180,"Ġdefining":11181,"Ġperfect":11182,"Ġinterstitial":11183,"aud":11184,"pes":11185,"oms":11186,"ĠTu":11187,"ucas":11188,"lected":11189,"Ġ2019":11190,"ĠVP":11191,"âĪ¼":11192,"sequent":11193,"Ġpersonality":11194,"Ġattenuation":11195,"Ġrevised":11196,"%-":11197,"yph":11198,"Ġbif":11199,"Ġnerves":11200,"Ġplans":11201,"Ġpulses":11202,"Ġdefinitive":11203,"iph":11204,"mid":11205,"Ġ(âĢľ":11206,"Ġprescrib":11207,"Ġreproduction":11208,"aphylococcus":11209,"Ġcod":11210,"Ġacuity":11211,"âĢīM":11212,"Ġseemed":11213,"Ġsolely":11214,"ĠParkinson":11215,"ropl":11216,"Ġ110":11217,"Ġintron":11218,"Ġmultim":11219,"Ġtermed":11220,"Ġallevi":11221,"Ġpairwise":11222,"ICA":11223,"Pa":11224,"sil":11225,"Ġnitrate":11226,"etheless":11227,"Ġintermedi":11228,"ĠOp":11229,"Ġreader":11230,"gland":11231,"Ġsolubility":11232,"Ġmathematical":11233,"FU":11234,"nM":11235,"Ġlib":11236,"ĠDD":11237,"Ġimmunodef":11238,"Ġorganized":11239,"catal":11240,"raine":11241,"proximately":11242,"Ġmodulating":11243,"ĠCDK":11244,"Ġdeline":11245,"Ġoptimum":11246,"Ġkidneys":11247,"ĠEquation":11248,"Ġstaging":11249,"ĠCs":11250,"essation":11251,"ĠEBV":11252,"ĠAssessment":11253,"ĠAltern":11254,"ĠBiotechnology":11255,"ticed":11256,"Ġspectrophot":11257,"ENTS":11258,"Ġimmature":11259,"Ġsatisfactory":11260,"Ġatmosphere":11261,"Ġempty":11262,"sulf":11263,"Ġrated":11264,"Ġboundaries":11265,"Ġeosinophil":11266,"rogenic":11267,"abine":11268,"emale":11269,"Ġclade":11270,"arded":11271,"Ġstrongest":11272,"2014":11273,"ket":11274,"terminus":11275,"PBS":11276,"leted":11277,"Ġtransverse":11278,"Ġrelief":11279,"ĠChi":11280,"rangements":11281,"Ġfacilitates":11282,"Ġortholog":11283,"ĠInstitutional":11284,"Ġconductance":11285,"Ġsick":11286,"Ġresponsiveness":11287,"140":11288,"income":11289,"Ġaxonal":11290,"ibrated":11291,"ĠÏĥ":11292,"ken":11293,"nd":11294,"raining":11295,"Ġimmunological":11296,"Ġexploration":11297,"Ġepitope":11298,"Ġpassage":11299,"Ġgrafts":11300,"Hs":11301,"Ġcros":11302,"mber":11303,"nes":11304,"ttps":11305,"Ġsuture":11306,"Ġexponential":11307,"fed":11308,"lar":11309,"ĠPub":11310,"ayers":11311,"Ġsecretory":11312,"cyt":11313,"Ġant":11314,"olated":11315,"Ġproceed":11316,"ĠSanta":11317,"ĠMF":11318,"ĠIniti":11319,"Health":11320,"ony":11321,"Ġsudden":11322,"irm":11323,"yclic":11324,"Ġexpectations":11325,"ĠSl":11326,"ĠDrug":11327,"ĠOver":11328,"Ġdifferently":11329,"Ġtranslated":11330,"yzed":11331,"tise":11332,"ĠTai":11333,"Ġfunding":11334,"Ġgonad":11335,"ees":11336,"ĠMex":11337,"Ġcontexts":11338,"ĠGF":11339,"ĠStandard":11340,"Ġfacilitated":11341,"Ġalkal":11342,"Ġplaus":11343,"Ġrelatives":11344,"acking":11345,"122":11346,"Ġolfactory":11347,"Ġcognition":11348,"itance":11349,"ĠPPI":11350,"Ġcoagulation":11351,"Ġmononuclear":11352,"okyo":11353,"Ġadministr":11354,"Ġcondens":11355,"Ġcessation":11356,"aturated":11357,"Ġfell":11358,"aminergic":11359,"Ġcoping":11360,"Ġillustrates":11361,"Ġhaplotypes":11362,"Ġvacuum":11363,"ositol":11364,"Ġconduction":11365,"Ġ130":11366,"oprop":11367,"erson":11368,"Ġchoose":11369,"Ġultrason":11370,"eties":11371,"Ġbath":11372,"identif":11373,"Inf":11374,"107":11375,"ĠHealthcare":11376,"tidine":11377,"Ġcategorical":11378,"uestionnaire":11379,"Ġars":11380,"111":11381,"Ġoxidized":11382,"ĠCXCR":11383,"Serum":11384,"growth":11385,"Ġsac":11386,"âĢĥ":11387,"Ġpathologic":11388,"ovember":11389,"domain":11390,"linking":11391,"Ġsph":11392,"esium":11393,"2013":11394,"Ġburst":11395,"Ġpsori":11396,"ligible":11397,"otom":11398,"Ġ101":11399,"ĠRE":11400,"Ġinjured":11401,"ĠIndian":11402,"Ġlumen":11403,"Ġenvelope":11404,"Ġbiliary":11405,"stranded":11406,"Ġirre":11407,"Ġcerevisiae":11408,"Ġsyndrom":11409,"Ġsmoke":11410,"uv":11411,"Ġdiscl":11412,"Ġdesigns":11413,"Ġthemes":11414,"Ġcircumstances":11415,"QoL":11416,"Ġcyl":11417,"ita":11418,"illip":11419,"Ġimportantly":11420,"Ġtranslational":11421,"Ġpropagation":11422,"ĠNM":11423,"109":11424,"onset":11425,"Ġgenerations":11426,"Ġjunctions":11427,"Ġresident":11428,"Ġleukocyte":11429,"Ġcapsule":11430,"Ġpreceding":11431,"Ġlists":11432,"Ġging":11433,"ĠMic":11434,"ĠWhere":11435,"Ġstimulating":11436,"Ġanaerobic":11437,"Ġtandem":11438,"inic":11439,"âĢ²,":11440,"Ġprepare":11441,"Ġobstructive":11442,"XR":11443,"fluor":11444,"las":11445,"Ġprojection":11446,"Ġgross":11447,"Ġunless":11448,"Ġencoun":11449,"Ġplayers":11450,"Ġparietal":11451,"-/-":11452,"Gene":11453,"Ġrub":11454,"ĠDay":11455,"Ġcollect":11456,"AGE":11457,"2011":11458,"ygd":11459,"Ġruns":11460,"availability":11461,"ĉĉ":11462,"Ġsurfact":11463,"Ġligation":11464,"Ġsouthern":11465,"ager":11466,"otherapeutic":11467,"rafts":11468,"Ġethnicity":11469,"amethasone":11470,"]:":11471,"Ġtur":11472,"olation":11473,"azol":11474,"pendix":11475,"Ġjuven":11476,"ejun":11477,"rod":11478,"Ġplated":11479,"Ġdecided":11480,"bruary":11481,"Ġgeographical":11482,"Ġweakness":11483,"Ġreproducibility":11484,"ĠIllumina":11485,"ifornia":11486,"Pr":11487,"Ġsarc":11488,"Ġ(Â±":11489,"opa":11490,"ĠPSA":11491,"Ġmicrom":11492,"ogenicity":11493,"Ġfilament":11494,"AIM":11495,"Ġhouseholds":11496,"Ġenabling":11497,"ophyll":11498,"Sim":11499,"Ġcran":11500,"ĠCoch":11501,"Ġrestoration":11502,"ĠSweden":11503,"Ġprospectively":11504,"bra":11505,"nec":11506,"thromb":11507,"Ġsetup":11508,"Ass":11509,"Ġhandling":11510,"Ġnorthern":11511,"Ġnicotine":11512,"ĠExperiment":11513,"orubicin":11514,"ĠTi":11515,"ĠTriton":11516,"Ġcounterparts":11517,"amer":11518,"ĠDT":11519,"ceral":11520,"Ġexcluding":11521,"Ġrecipient":11522,"Ġdisturbances":11523,"Ġbonding":11524,"Par":11525,"Ã£":11526,"Ġcellulose":11527,"Ġprovider":11528,"Ġpriority":11529,"omerase":11530,"ĠValues":11531,"both":11532,"Ġsomat":11533,"ĠTg":11534,"iling":11535,"ĠPatient":11536,"Ġgenotyping":11537,"ĠBa":11538,"oxic":11539,"Ġmoist":11540,"Ġbiologically":11541,"ĠBlood":11542,"transfected":11543,"Akt":11544,"Ġmassive":11545,"Ġforced":11546,"oxon":11547,"Ġhelix":11548,"protective":11549,"Ġwarranted":11550,"vian":11551,"Ġ1980":11552,"Ġconditioned":11553,"Ġcentres":11554,"Ġcalls":11555,"Ġeliminated":11556,"Ġphenomena":11557,"Ġmicrograms":11558,"eff":11559,"inery":11560,"Ġdens":11561,"Ġshr":11562,"uncture":11563,"Ġ140":11564,"otoxic":11565,"Ġsynapses":11566,"Ġvolunt":11567,"Ġstig":11568,"ĠMar":11569,"Ġdeal":11570,"ĠUp":11571,"ptomycin":11572,"ĠBonferroni":11573,"Ġefflux":11574,"Ġreconstructed":11575,"Ġcovering":11576,"oud":11577,"hether":11578,"Ġperin":11579,"Ġhelic":11580,"Ġectopic":11581,".(":11582,"Ġsap":11583,"anium":11584,"utation":11585,"upled":11586,"Ġincid":11587,"Ġwear":11588,"Ġrepression":11589,"Ġappropri":11590,"ETT":11591,"Ġprobabilities":11592,"Ġgp":11593,"stud":11594,"place":11595,"ceptual":11596,"Ġdefinitions":11597,"Ġlen":11598,"Ġprojects":11599,"ishman":11600,"Ġplaques":11601,"Not":11602,"review":11603,"Ġankle":11604,"imetric":11605,"unting":11606,"Ġsoils":11607,"ognitive":11608,"Ġreductase":11609,"lobal":11610,"Ġpollen":11611,"Ġstrept":11612,"qPCR":11613,"Ġsen":11614,"ĠICD":11615,"ĠPTSD":11616,"rants":11617,"Ġkm":11618,"Ġorganizations":11619,"Ġradiographic":11620,"Ġfocuses":11621,"Ġoptimize":11622,"Ġavoidance":11623,"Cre":11624,"NV":11625,"Ġhearts":11626,"Ġinterrup":11627,"Ġcalculating":11628,"Ġepitopes":11629,"Ġdigested":11630,"Ġattributes":11631,"Ġdisturbance":11632,"ĠAustralian":11633,"Ġathletes":11634,"GB":11635,"Mo":11636,"Tc":11637,"uan":11638,"Ġcure":11639,"ĠMW":11640,"species":11641,"Ġextinc":11642,"ceptors":11643,"Ġaddressing":11644,"Ġmorphine":11645,"ĠDAPI":11646,"Ġcue":11647,"ĠTEM":11648,"Ġsharp":11649,"Ġmodelling":11650,"Ġsympathetic":11651,"Ġosteoporosis":11652,"Ġtes":11653,"Ġmating":11654,"ifies":11655,"ĠRo":11656,"Ġ800":11657,"Ġradicals":11658,"ĠCx":11659,"Ġperp":11660,"ĠGE":11661,"Ġresponsive":11662,"Ġdepressed":11663,"Ġattending":11664,"ĠÂµL":11665,"Ġhepatocellular":11666,"Ġconjunction":11667,"Ġtone":11668,"ĠshRNA":11669,"Ġprone":11670,"Ġpoli":11671,"Ġhospitalized":11672,"ifferentiated":11673,"GI":11674,"pred":11675,"total":11676,"Ãħ":11677,"Ġconfirms":11678,"PSC":11679,"Ġribosomal":11680,"Ġautomatically":11681,"ACT":11682,"Fif":11683,"ĠtRNA":11684,"inator":11685,"rex":11686,"idic":11687,"openia":11688,"ĠSignificant":11689,"Ġadul":11690,"Ġprenatal":11691,"Ġenergies":11692,"âĢĻ.":11693,"ĠQuestionnaire":11694,"SU":11695,"TIF":11696,"Ġsides":11697,"Ġdocking":11698,"imus":11699,"Ġimaged":11700,"Ġcoast":11701,"Ġfilters":11702,"Ġmediates":11703,"Ġchoices":11704,"Ġcollaboration":11705,"Ġechocardiography":11706,"earman":11707,"arges":11708,"Ġhemodynamic":11709,"Ġfertility":11710,"Ġoct":11711,"ĠMTT":11712,"adap":11713,"Ġcolonic":11714,"Ġleukocytes":11715,"End":11716,"Ġinconsistent":11717,"Ġallocation":11718,"Ġaxon":11719,"Ġswim":11720,"ira":11721,"lines":11722,"osarcoma":11723,"Ġexhaus":11724,"thood":11725,"Ġimbal":11726,"Ġdepolar":11727,"Ġboot":11728,"Ġsubstitutions":11729,"Ġflexion":11730,"IK":11731,"Such":11732,"ultured":11733,"ressively":11734,"ardia":11735,"yroidism":11736,"Ġexpenditure":11737,"quartile":11738,"Des":11739,"Ġcass":11740,"ĠMK":11741,"ĠFV":11742,"Ġscaling":11743,"102":11744,"Ġligament":11745,"Ġentirely":11746,"Ġpercutaneous":11747,"Ġlandscape":11748,"alb":11749,"agit":11750,"Ġpreservation":11751,"ailed":11752,"Ġadditionally":11753,"Ġfamilial":11754,"Ġepisode":11755,"Ġviolence":11756,"respective":11757,"ĠGraph":11758,"Ġrelate":11759,"Ġunlike":11760,"avig":11761,"145":11762,"Ġspontaneously":11763,"odynam":11764,"ĠConsidering":11765,"Ġacknow":11766,"Ġsyring":11767,"Ġmetformin":11768,"Ġamygd":11769,"Ġcolour":11770,"Ġfunctionality":11771,"ĠIgA":11772,"Ġnmol":11773,"ĠBlack":11774,"Ġmonthly":11775,"Ġreperfusion":11776,"Eight":11777,"wing":11778,"Ġinpatient":11779,"Ġstarch":11780,"ĠIns":11781,"rectomy":11782,"ethylation":11783,"Ġphotoc":11784,"2015":11785,"ĠSLE":11786,"appropriate":11787,"Ġintention":11788,"rat":11789,"itosan":11790,"Ġstrip":11791,"ĠMaterials":11792,"Ġintegral":11793,"Ġfalls":11794,"Ġvertebral":11795,"dU":11796,"Ġumb":11797,"Ġwash":11798,"six":11799,"ĠFrench":11800,"Ġpermit":11801,"Ġpolyc":11802,"Ġperiodontal":11803,"rogate":11804,"ĠAKT":11805,"Ġcontaminated":11806,"ĠRNase":11807,"ĠMIC":11808,"ĠFM":11809,"Âł+":11810,"Ġclock":11811,"Ġabscess":11812,"Ġcoded":11813,"isely":11814,"amyl":11815,"Ġorally":11816,"007":11817,"Ġamp":11818,"tension":11819,"ĠKn":11820,"engue":11821,"Ġlymphoid":11822,"STAT":11823,"ĠOnce":11824,"ĠAlexa":11825,"Due":11826,"Ġtry":11827,"Ġosm":11828,"Ġfate":11829,"ĠGaussian":11830,"ĠOCT":11831,"Ġdefault":11832,"Ġtrich":11833,"Ġdegraded":11834,"Ġcomprises":11835,"Ġcerebellar":11836,"Ġoscillations":11837,"ona":11838,"Ġprove":11839,"oped":11840,"ourse":11841,"Ġcorp":11842,"Ġendpoint":11843,"Ġprompt":11844,"Ġestimating":11845,"Ġtrade":11846,"Ġreconstit":11847,"cip":11848,"wa":11849,"ĠKing":11850,"Ġquantities":11851,"Zn":11852,"ho":11853,"redi":11854,"olgi":11855,"uminescence":11856,"ĠOH":11857,"Ġpurity":11858,"oxylin":11859,"Ġneuropath":11860,"Ġstationary":11861,"antification":11862,"wt":11863,"idazole":11864,"ĠHM":11865,"guided":11866,"Ġdeterioration":11867,"ĠMax":11868,"Ġinsects":11869,"CRP":11870,"Ġammonium":11871,"kal":11872,"leg":11873,"uck":11874,"ĠAE":11875,"ĠPRO":11876,"Ġestablishing":11877,"Ġloops":11878,"Ġhistorical":11879,"112":11880,"urons":11881,"Ġbeg":11882,"ĠND":11883,"oxif":11884,"otyped":11885,"rospective":11886,"Ġgrass":11887,"ĠEGF":11888,"âĢīml":11889,"ographics":11890,"ĠChar":11891,"Ġcleaved":11892,"Ġmedicines":11893,"ĠCalifornia":11894,"AUC":11895,"Ġtric":11896,"Ġsaid":11897,"Ġpet":11898,"osidase":11899,"ĠPd":11900,"Ġneo":11901,"Ġrelating":11902,"Ġdefective":11903,"ĠlncRNAs":11904,"Ġuncommon":11905,"base":11906,"Ġdots":11907,"ĠCity":11908,"abase":11909,"Ġoutlined":11910,"ATION":11911,"Ġdeletions":11912,"Ġneuropsych":11913,"Ls":11914,"ĠMark":11915,"vival":11916,"Ġspherical":11917,"Ġprogester":11918,"Ġwilling":11919,"Ġsuffer":11920,"Ġsummer":11921,"ĠError":11922,"throughput":11923,"HB":11924,"TRA":11925,"Ġign":11926,"umination":11927,"agers":11928,"Ġregime":11929,"ungal":11930,"Ġpositioned":11931,"articular":11932,"ĠPhase":11933,"Ġanatomy":11934,"Ġforeign":11935,"herry":11936,"Ġreproducible":11937,"NB":11938,"Ġiso":11939,"ĠMice":11940,"ĠFuture":11941,"ĠOx":11942,"Ġpostoperatively":11943,"Ġglucocortic":11944,"ĠEngland":11945,"poly":11946,"Ã£o":11947,"rote":11948,"ĠTiO":11949,"ĠTokyo":11950,"Ġdisl":11951,"ĠNovember":11952,"Ġlysine":11953,"ÂłÎ¼M":11954,"Ġprogesterone":11955,"Ġveter":11956,"ĠGBM":11957,"Statistical":11958,"Ġpassed":11959,"ĠSoftware":11960,"Ġtraffic":11961,"Ġcannab":11962,"ubin":11963,"Ġemploying":11964,"Ġangiotensin":11965,"Ġemissions":11966,"Ġspindle":11967,"Ġtach":11968,"reasing":11969,"rav":11970,"agland":11971,"prop":11972,"Ġstrengths":11973,"ĠWithin":11974,"Ġsuffered":11975,"UDY":11976,"parametric":11977,"Ġdecomposition":11978,"Ġrepetitive":11979,"PEG":11980,"Ġinequ":11981,"ĠTX":11982,"ĠGT":11983,"eart":11984,"ponent":11985,"PSCs":11986,"Ġengage":11987,"Ġshifted":11988,"Ġhabits":11989,"Ġbreath":11990,"diabetic":11991,"Ġduod":11992,"Ġimmunosuppressive":11993,"GM":11994,"PET":11995,"hn":11996,"prim":11997,"ocin":11998,"ĠHI":11999,"ĠRMS":12000,"ÂłÂµ":12001,"Ġcyclo":12002,"Ġcontinues":12003,"Ġencode":12004,"ĠCaucas":12005,"Ġpositioning":12006,"ĠMSC":12007,"ĠEnter":12008,"ĠFebruary":12009,"Ġdisrupted":12010,"idel":12011,"ellig":12012,"Ġorange":12013,"ĠWang":12014,"Ġneuros":12015,"Ġimmunoreactivity":12016,"illipore":12017,"prom":12018,"integ":12019,"Ġdistilled":12020,"Âł8":12021,"Ġesophag":12022,"Ġfruits":12023,"Ġprobable":12024,"Ġphysically":12025,"Ġprogrammes":12026,"Ġmasses":12027,"ÂłÎ¼m":12028,"bar":12029,"ĠChIP":12030,"Ġcomplaints":12031,"Ġmutagenesis":12032,"Syn":12033,"Ġargu":12034,"Ġexhibiting":12035,"Ġsymmetry":12036,"Ġpositivity":12037,"Ġtap":12038,"Ġhelps":12039,"Ġquantitatively":12040,"Ġemployment":12041,"Ġpersonnel":12042,"Ġhumidity":12043,"imetry":12044,"onomy":12045,"Ġcame":12046,"Ġwant":12047,"ama":12048,"Ġevapor":12049,"Ġseedlings":12050,"ĠHepG":12051,"iative":12052,"ception":12053,"Ġsignatures":12054,"Ġautologous":12055,"ĠStaphylococcus":12056,"Also":12057,"Ġassuming":12058,"Ġfiltering":12059,"Ġadipocytes":12060,"Ġimmobilized":12061,"Pad":12062,"dh":12063,"Ġtex":12064,"Ġsulph":12065,"Ġbatter":12066,"Ġinvest":12067,"ĠKaplan":12068,"Ġmachinery":12069,"Ġordered":12070,"Ġhemisphere":12071,"IQR":12072,"oice":12073,"Ġtac":12074,"inting":12075,"Ġthous":12076,"ĠCAP":12077,"ĠFC":12078,"ogeny":12079,"titude":12080,"Ġbacteri":12081,"Ġacceler":12082,"Ġduplication":12083,"Ġsuggestive":12084,"LDL":12085,"ĠCON":12086,"ĠLow":12087,"issue":12088,"ova":12089,"Ġpredicts":12090,"ecl":12091,"ye":12092,"Ġpiv":12093,"Ġretain":12094,"Ġlane":12095,"ĠTime":12096,"Ġseptic":12097,"arium":12098,"acetic":12099,"Ġmanif":12100,"ropy":12101,"Ġfluids":12102,"Ġsulfur":12103,"domen":12104,"Ġinversely":12105,"oradi":12106,"ĠAct":12107,"gans":12108,"Ġusefulness":12109,"Ġsociety":12110,"ĠSystems":12111,"ĠCMV":12112,"ĠAMPK":12113,"Ġstanding":12114,"ĠMad":12115,"Ġplacental":12116,"nexin":12117,"123":12118,"tification":12119,"ĠArg":12120,"Ġtriggers":12121,"ĠTaq":12122,"Ġtruncated":12123,"Next":12124,"Out":12125,"SMA":12126,"iol":12127,"item":12128,"Ġ(âī¥":12129,"terious":12130,"Ġdeformation":12131,"Ġphant":12132,"ĠKCl":12133,"Ġamongst":12134,"Ġcoordinated":12135,"Ġtibial":12136,"Ġdiscrepancy":12137,"Taken":12138,"pyr":12139,"orp":12140,"Ġconducting":12141,"educed":12142,"Ġtumorigenesis":12143,"Ġcong":12144,"ythem":12145,"ĠWeb":12146,"annel":12147,"Ġrepresentations":12148,"Ġconditioning":12149,"Ġextending":12150,"Ġmultivariable":12151,"ĠTables":12152,"ĠCAR":12153,"Ġsubm":12154,"keys":12155,"Ġnucleic":12156,"Ġaccumulate":12157,"Ġlysed":12158,"Ġdenotes":12159,"Ġmissed":12160,"Ġminimally":12161,"white":12162,"Ġcement":12163,"imaging":12164,"ĠCand":12165,"ĠSCC":12166,"Ġcatar":12167,"Ġpellet":12168,"Ġsplice":12169,"enhanced":12170,"istically":12171,"Ġconsiderations":12172,"Ġluminal":12173,"Cas":12174,"burg":12175,"orient":12176,"Ġantif":12177,"Ġbootstrap":12178,"mM":12179,"inhibit":12180,"Ġseeking":12181,"Ġimmunodeficiency":12182,"ĠBT":12183,"ĠLong":12184,"ĠUC":12185,"155":12186,"Ġradiological":12187,"Ġexcitatory":12188,"Ġpixel":12189,"rob":12190,"rail":12191,"ĠMass":12192,"ĠDen":12193,"Ġtherapeu":12194,"Ġnegligible":12195,"Ġconfirmation":12196,"Ġboard":12197,"+]":12198,"omyc":12199,"Ġlute":12200,"Ġintermit":12201,"plements":12202,"Ġtransduc":12203,"Ġemp":12204,"Ġimmunotherapy":12205,"apsed":12206,"Ġdoctor":12207,"ĠBoard":12208,"entary":12209,"Ġmedull":12210,"Ġresponding":12211,"Ġphenolic":12212,"Ġconcerned":12213,"Ġcoordinate":12214,"iang":12215,"iguous":12216,"utch":12217,"uming":12218,"Ġlec":12219,"Ġdecomp":12220,"obser":12221,"Ġstatistic":12222,"Ġcurv":12223,"Ġstimulates":12224,"Ġsuspended":12225,"Ġdistrict":12226,"Ġpercentile":12227,"Ġfibrillation":12228,"ĠTaiwan":12229,"Ġcitrate":12230,"orrect":12231,"icans":12232,"008":12233,"Ġcough":12234,"ĠChildren":12235,"Ġfilaments":12236,"Ġbackbone":12237,"Ġcatech":12238,"ĠPTEN":12239,"Ġbench":12240,"omatous":12241,"Ġorders":12242,"Ġreciproc":12243,"Blood":12244,"Ġclaims":12245,"Ġopinion":12246,"Ġarginine":12247,"ĠAff":12248,"ĠSix":12249,"ranged":12250,"anghai":12251,"Ġmoiety":12252,"Ġvisceral":12253,"ynamic":12254,"Ġreflection":12255,"Ġcentury":12256,"Ġpartition":12257,"Ġprefrontal":12258,"Ġbalanced":12259,"Ġcytoskeleton":12260,"Ġfabricated":12261,"Ġmonolayer":12262,"Ġcourses":12263,"onitrile":12264,"pur":12265,"Ġfly":12266,"Ġ()":12267,"Ġheavi":12268,"ĠVO":12269,"ĠJNK":12270,"Ġschedule":12271,"agittal":12272,"ele":12273,"isual":12274,"Ġbus":12275,"Ġsurvive":12276,"orporation":12277,"Ġacceptance":12278,"Ġautoanti":12279,"Ġelicit":12280,"Ġconsultation":12281,"Ġarbitr":12282,"onom":12283,"Ġwaters":12284,"ĠAcc":12285,"ĠFive":12286,"Ġhistologic":12287,"Ġpixels":12288,"Ġanomalies":12289,"Ġadulthood":12290,"MK":12291,"Ġexpensive":12292,"ACh":12293,"Ġhyperplasia":12294,"Ġsaturated":12295,"ĠWhite":12296,"ETTING":12297,"Ġdebr":12298,"Ġperoxide":12299,"Ġrelies":12300,"Ġargue":12301,"Ġconflu":12302,"ausea":12303,"ishing":12304,"Ġbacterium":12305,"Ġchallenged":12306,"pation":12307,"terisk":12308,"iles":12309,"Ġlabelled":12310,"Ġincorporating":12311,"CoA":12312,"partate":12313,"Ġengineered":12314,"rystall":12315,"Ġglaucoma":12316,"VT":12317,"nam":12318,"lymp":12319,"pecific":12320,"ĠDH":12321,"Ġautosomal":12322,"Ġconditional":12323,"ulfide":12324,"ĠMgCl":12325,"ĠAIDS":12326,"Ġsib":12327,"Ġcows":12328,"Ġnemat":12329,"Ġaliqu":12330,"ĠPath":12331,"Ġdeploy":12332,"âĪ¶":12333,"Ġcooling":12334,"cause":12335,"fa":12336,"za":12337,"Ġmand":12338,"Ġstake":12339,"Ġprojections":12340,"ĠAPP":12341,"Ġcircumference":12342,"Ġrigid":12343,"Ġinverted":12344,"Ġimmunostaining":12345,"revi":12346,"acil":12347,"Ġvig":12348,"Ġmorning":12349,"Ġstopped":12350,"Ġtransplanted":12351,"Ox":12352,"een":12353,"Ġpestic":12354,"anyl":12355,"ĠPFS":12356,"ĠFS":12357,"erent":12358,"âĢī6":12359,"tracted":12360,"Ġphosphatidyl":12361,"Protein":12362,"Ġfalcip":12363,"Ġaccommod":12364,"His":12365,"dec":12366,"âĢĺ":12367,"ĠACh":12368,"agent":12369,"ĠGr":12370,"Ġmonocyte":12371,"Ġacetylation":12372,"Ġimpos":12373,"Ġperspec":12374,"2016":12375,"acrylamide":12376,"ĠCochrane":12377,"Ġpropos":12378,"ĠHo":12379,"dex":12380,"ĠKR":12381,"Ġsoon":12382,"Ġsubcellular":12383,"Cells":12384,"Molecular":12385,"Ġrational":12386,"play":12387,"ĠRCTs":12388,"Ġexperiencing":12389,"Ġadvice":12390,"2009":12391,"Ġhormonal":12392,"Ġescape":12393,"Ġperspectives":12394,"Ġcast":12395,"Ġleaving":12396,"ĠGeneral":12397,"Ġadequately":12398,"Ġneonates":12399,"ĠBDNF":12400,"Ġaspiration":12401,"Ġoutbreaks":12402,"Ġassignment":12403,"Ġcocaine":12404,"mph":12405,"toph":12406,"rance":12407,"Ġperiodic":12408,"Applied":12409,"Ġfalciparum":12410,"Qiagen":12411,"oarth":12412,"inge":12413,"Ġcomes":12414,"Ġdetrim":12415,"Ġediting":12416,"Ġapproximation":12417,"Ġamplitudes":12418,"ĠORF":12419,"small":12420,"selective":12421,"Ġmosquitoes":12422,"Ġcigarette":12423,"CCA":12424,"ä¸":12425,"agree":12426,"Ġchart":12427,"ĠCHD":12428,"ybean":12429,"bio":12430,"Ġpocket":12431,"Ġfilling":12432,"Ġreact":12433,"ĠLL":12434,"Ġinformative":12435,"Ġdominated":12436,"Ġsaliva":12437,"OV":12438,"coxon":12439,"list":12440,"Ġstoch":12441,"Ġcontribut":12442,"Ġdeleterious":12443,"ĠGerman":12444,"oea":12445,"Ġbridge":12446,".),":12447,"real":12448,"Ġeuth":12449,"ĠPur":12450,"CTT":12451,"Ġderive":12452,"EGs":12453,"visions":12454,"atonin":12455,"rabb":12456,"ĠABC":12457,"ĠHCT":12458,"Ġhelped":12459,"ĠCompar":12460,"ĠPseudomonas":12461,"han":12462,"Ġbatch":12463,"estab":12464,"Ġcorresponded":12465,"Ġmitral":12466,"awa":12467,"Ġsemantic":12468,"Ġingredi":12469,"fr":12470,"Ġlup":12471,"Ġgent":12472,"ĠMid":12473,"Ġmoved":12474,"Ġprecisely":12475,"Ġinterested":12476,"transl":12477,"ĠnaÃ¯ve":12478,"FV":12479,"Ġophthal":12480,"Ġcub":12481,"Ġinability":12482,"lectively":12483,"Ġsubsc":12484,"Ġfacilitating":12485,"Ġbright":12486,"Ġsilicon":12487,"Ġreticulum":12488,"Ġrheumatoid":12489,"sue":12490,"ĠTBI":12491,"ĠDisc":12492,"Ġgenetics":12493,"Ġcerebellum":12494,"Ġdesirable":12495,"ĠSocial":12496,"ĠDo":12497,"ĠDSM":12498,"âĢīâĪĴ":12499,"132":12500,"Ġglycine":12501,"Ġbioavailability":12502,"kinase":12503,"Ġharmful":12504,"OG":12505,"det":12506,"unic":12507,"ĠFluor":12508,"Ġmonomer":12509,"rological":12510,"Ġeros":12511,"ĠHSV":12512,"Ġidiopathic":12513,"hr":12514,"rically":12515,"Ġpict":12516,"ilt":12517,"tivities":12518,"Ġwhereby":12519,"Ġphotore":12520,"gp":12521,"gment":12522,"sch":12523,"Ġsouth":12524,"Ġanion":12525,"Ġperox":12526,"astructure":12527,"Ġspan":12528,"ĠSpain":12529,"Ġ293":12530,"LL":12531,"eight":12532,"Ġpin":12533,"Ġandrogen":12534,"deg":12535,"Ġdeterminant":12536,"Ġsyndromes":12537,"Ġacup":12538,"Ġkilling":12539,"Ġproperly":12540,"%âĢĵ":12541,"ald":12542,"Ġproof":12543,"ops":12544,"Ġinfrared":12545,"Ġanalyse":12546,"Ġovary":12547,"Ġips":12548,"rost":12549,"acid":12550,"Ġnavig":12551,"Ġtrunk":12552,"Ġgeometric":12553,"Ġadmissions":12554,"onyl":12555,"Ġba":12556,"otrophic":12557,"ĠMt":12558,"ĠHMG":12559,"Ġdiffering":12560,"Ġclonal":12561,"ĠInstr":12562,"eps":12563,"Ġopposed":12564,"ercap":12565,"meas":12566,"oplast":12567,"Ġtropical":12568,"nic":12569,"ece":12570,"random":12571,"Ġdoing":12572,"glob":12573,"ĠRaman":12574,"ĠFood":12575,"ĠRiver":12576,"ipot":12577,"ĠÎ·":12578,"Ġbiomedical":12579,"Ġabdomen":12580,"Ġreflux":12581,"Ġsoybean":12582,"Ġenhancer":12583,"Ġporous":12584,"Ġinstances":12585,"Ġcytosol":12586,"Ġsput":12587,"effects":12588,"Ġsearches":12589,"otransferase":12590,"Ġlearned":12591,"Ġfire":12592,"strand":12593,"portive":12594,"Ġmicron":12595,"urrences":12596,"CTG":12597,"block":12598,"Ġhaemat":12599,"dd":12600,"nals":12601,"asy":12602,"Ġkern":12603,"Ġallergy":12604,"obi":12605,"Ġpostpartum":12606,"Ġappend":12607,"Ġgranules":12608,"Ġlifes":12609,"informatics":12610,"rabbit":12611,"Ġfoss":12612,"aco":12613,"ĠTogether":12614,"Ġnotably":12615,"Ġblank":12616,"ĠÎ¸":12617,"Ġprogressively":12618,"Ġlimbs":12619,"ASP":12620,"Ġepidemiology":12621,"Ġhabitats":12622,"ĠChemical":12623,"ez":12624,"gr":12625,"Ġchel":12626,"Ġ([":12627,"ussion":12628,"uccess":12629,"Ġcommit":12630,"Ġgenerates":12631,"Ġguideline":12632,"Ġdenote":12633,"Ġanalogue":12634,"ĠHFD":12635,"odialysis":12636,"PATI":12637,"Ġaph":12638,"tia":12639,"Ġclamp":12640,"ĠLP":12641,"Ġarrangement":12642,"Ġelast":12643,"Ġporcine":12644,"Ġneighboring":12645,"Ġpharmacokinetic":12646,"cel":12647,"ĠfMRI":12648,"ĠMi":12649,"ĠFP":12650,"Ġsolar":12651,"Ġplausible":12652,"energy":12653,"Ġalanine":12654,"ropathy":12655,"Ġacceleration":12656,"galact":12657,"Ġupdated":12658,"relevant":12659,"Car":12660,"alg":12661,"ĠRas":12662,"Âł(":12663,"Ġgeneric":12664,"2008":12665,"Ġstabilized":12666,"Ġranked":12667,"Ġletter":12668,"ĠACE":12669,"ĠMultiple":12670,"Ġlev":12671,"iber":12672,"Ġexploring":12673,"Ġsteroids":12674,"Ġstriatum":12675,"Ġblinded":12676,"Ġmicrotubule":12677,"Fl":12678,"omiting":12679,"ografts":12680,"Ġrings":12681,"Ġgenital":12682,"ĠVI":12683,"Ġcircle":12684,"Ġapproximate":12685,"Ġbioactive":12686,"Ġagricultural":12687,"-[":12688,"odds":12689,"Ġrpm":12690,"ĠHsp":12691,"Ġallocated":12692,"LAB":12693,"Ġpigment":12694,"oxygenase":12695,"Gy":12696,"bir":12697,"Ġcit":12698,"esophageal":12699,"anz":12700,"Ġincorrect":12701,"Ġwhilst":12702,"ĠRadi":12703,"ĠNPC":12704,"prolif":12705,"Ġrect":12706,"illion":12707,"Ġune":12708,"Ġantisense":12709,"Ġclassic":12710,"Ġcurric":12711,"Ġelectrostatic":12712,"Ġirrespective":12713,"Ġvesicle":12714,"Ġminority":12715,"Ġentity":12716,"long":12717,"receptor":12718,"ĠACC":12719,"Ġplur":12720,"ĠÎµ":12721,"108":12722,"exposed":12723,"Ġpools":12724,"Ġgraded":12725,"ximab":12726,"Ġemotions":12727,"Ġmicrobiome":12728,"Ġletters":12729,"Ġrodents":12730,"word":12731,"ocus":12732,"Ġnotable":12733,"119":12734,"Ġdiscover":12735,"airy":12736,"ĠUnfortunately":12737,"Ġliposomes":12738,"Ġmigraine":12739,"Ġmagnesium":12740,"Chem":12741,"Ġpa":12742,"Ġplex":12743,"ersed":12744,"ĠNan":12745,"Ġregistry":12746,"Ġtranspos":12747,"Ġyielding":12748,"Ġinspec":12749,"Ġchemokines":12750,"Ġheterozyg":12751,"Ġimpairments":12752,"Ġpalliative":12753,"Ġplacenta":12754,"Ġtam":12755,"Ġcaffe":12756,"Ġnausea":12757,"olab":12758,"ĠMAL":12759,"Ġchemot":12760,"Ġtermination":12761,"Ġvisualize":12762,"second":12763,"racycline":12764,"Ġtaxonomic":12765,"Ġelectrom":12766,"Ġtriglycerides":12767,"Ep":12768,"inj":12769,"leb":12770,"Ġcolocal":12771,"Ġselecting":12772,"Ġcarcinogenesis":12773,"Ġnames":12774,"Ġatherosclerotic":12775,"Ġkeeping":12776,"Ġintermediates":12777,"Ã¤":12778,"omod":12779,"etary":12780,"umps":12781,"Ġbreastfeeding":12782,"Ġdebate":12783,"Ġamygdala":12784,"Ġserop":12785,"Ġtoxins":12786,"Ġspatially":12787,"Ġaspirin":12788,"GN":12789,"TOF":12790,"retro":12791,"erally":12792,"Ġcompan":12793,"ĠThose":12794,"Ġrevealing":12795,"ohn":12796,"Ġweaker":12797,"Ġpyruvate":12798,"Ġvictim":12799,"reviewed":12800,"So":12801,"Ġ1989":12802,"Ġjejun":12803,"Ġmediator":12804,"INE":12805,"ĠGenome":12806,"OE":12807,"Ġterr":12808,"ĠTRA":12809,"Ġinference":12810,"Ġrelig":12811,"Ġunders":12812,"Ġredund":12813,"Ġpropensity":12814,"ĠCFU":12815,"Ġprogenitors":12816,"Ġpollut":12817,"ĠTukey":12818,"Myc":12819,"cis":12820,"cit":12821,"report":12822,"urane":12823,"ongue":12824,"trast":12825,"Ġbrach":12826,"Ġbroadly":12827,"dimethyl":12828,"Ġregularly":12829,"Ġdischarged":12830,"Long":12831,"aign":12832,"file":12833,"Ã§":12834,"urin":12835,"odic":12836,"odend":12837,"Ġstring":12838,"Ġtrust":12839,"Ġeluted":12840,"Ġchemokine":12841,"Ġreliably":12842,"ĠIndividual":12843,"Ġdopaminergic":12844,"litaxel":12845,"ĠEffec":12846,"ackground":12847,"Ġ1988":12848,"Ġlegal":12849,"Ġhypothesize":12850,"Ġsedentary":12851,"Ġwriting":12852,"Ġcloning":12853,"Neu":12854,"bad":12855,"xia":12856,"ilical":12857,"ĠIN":12858,"Ġprey":12859,"erged":12860,"160":12861,"Ġabnormality":12862,"Ġcrystalline":12863,"Ġdexamethasone":12864,"Ġcorrobor":12865,"ĠDatabase":12866,"Roche":12867,"Ġbat":12868,"ĠIA":12869,"ĠMel":12870,"ĠESR":12871,"Ġassistance":12872,"Ġrecyc":12873,"129":12874,"Ġreferences":12875,"Â°,":12876,"Ġdiscriminate":12877,"Ġgradients":12878,"Ġslice":12879,"Ġstochastic":12880,",[":12881,"optimal":12882,"plies":12883,"Ġbiod":12884,"Ġspecialist":12885,"Ġbreakdown":12886,"Ġpleural":12887,"Ġaccessibility":12888,"Ġpivotal":12889,"VEGF":12890,"Ġhands":12891,"Ġexosomes":12892,"ĠPi":12893,"genesis":12894,"ramidal":12895,"structure":12896,"Ġtelephone":12897,"Forty":12898,"Ġhope":12899,"ÂłM":12900,"arian":12901,"avir":12902,"Ġfreed":12903,"Ġphenol":12904,"ĠADP":12905,"Ġperioperative":12906,"Patient":12907,"ROS":12908,"bow":12909,"nutrition":12910,"Ġbac":12911,"ĠOB":12912,"Ġscanner":12913,"ronectin":12914,"180":12915,"Ġlymphatic":12916,"character":12917,"effectiveness":12918,"menopausal":12919,"Ġganglion":12920,"bottom":12921,"Ġthrom":12922,"lys":12923,"Âł%)":12924,"ĠWM":12925,"monic":12926,"ĠAnimals":12927,"ĠMDR":12928,"Expression":12929,"Ġattitude":12930,"Ġtrem":12931,"Ġingestion":12932,"Ġmaster":12933,"amines":12934,"irubin":12935,"ĠIts":12936,"ĠLR":12937,"Ġutilize":12938,"Ġdriver":12939,"Ġinducible":12940,"Ġaggregate":12941,"Ġgraphs":12942,"toxic":12943,"Or":12944,"Ġsports":12945,"Ġdin":12946,"Ġether":12947,"Ġhygi":12948,"bridge":12949,"Ġversions":12950,"Ġweakly":12951,"ĠÏĦ":12952,"Ġpolypeptide":12953,"Ġhighlighting":12954,"ĠRPMI":12955,"Hb":12956,"ĠPAR":12957,"Ġcanine":12958,"Ġmini":12959,"Ġremarkably":12960,"Ġinherited":12961,"lympus":12962,"Ġdetrimental":12963,"depend":12964,"aryng":12965,"formaldehyde":12966,"perature":12967,"Ġroutes":12968,"Ġlives":12969,"Ġpriming":12970,"Ġhydrogel":12971,"Î¼m":12972,"ĠRespon":12973,"Ġsquares":12974,"Ġcounseling":12975,"EBP":12976,"micro":12977,"Ġinorganic":12978,"unit":12979,"Ġcone":12980,"chrom":12981,"jecting":12982,"âĢĿ)":12983,"Ġoperational":12984,"Ġsheet":12985,"Ġconstitutive":12986,"Ġalbicans":12987,"marks":12988,"Ġfifth":12989,"QP":12990,"Ġnas":12991,"Ġshapes":12992,"Ġecosystem":12993,"ispanic":12994,"Ġneurotransmit":12995,"ĠCRISPR":12996,"rea":12997,"het":12998,"esare":12999,"actional":13000,"inear":13001,"Âłng":13002,"Ġphoton":13003,"ĠPharm":13004,"Ġdissemination":13005,"Time":13006,"ulators":13007,"Ġendpoints":13008,"ĠPlasm":13009,"Ġsummarize":13010,"ĠQuantification":13011,"Ġdendr":13012,"Ġtightly":13013,"Ġdispersed":13014,"Ġannealing":13015,"Ġvoluntary":13016,"UP":13017,"gar":13018,"oys":13019,"asted":13020,"ĠCys":13021,"115":13022,"Ġmyosin":13023,"transfer":13024,"Ġfollicular":13025,"Ġballoon":13026,"Ġdoxorubicin":13027,"Ġmandibular":13028,"Rep":13029,"âĨĴ":13030,"Ġcities":13031,"ĠStatis":13032,"Ġdrivers":13033,"Ġbirths":13034,"Ġenroll":13035,"Ġattacks":13036,"Ġconstituents":13037,"Multiple":13038,"ames":13039,"ĠMaterial":13040,"ĠRD":13041,"ĠInstead":13042,"Ġaffective":13043,"Ġrestore":13044,"Ġincorporate":13045,"Ġfinite":13046,"Ġanatomic":13047,"Ġhazards":13048,"ĠPubMed":13049,"VP":13050,"hyp":13051,"Ġcage":13052,"itzer":13053,"Ġnoticed":13054,"Ġ128":13055,"Ġelectrons":13056,"ĠImages":13057,"bbrevi":13058,"Within":13059,"Ġcomorbidity":13060,"holic":13061,"Ġace":13062,"itum":13063,"Ġdengue":13064,"Ġbones":13065,"aded":13066,"Ġmonotherapy":13067,"Ġdepart":13068,"124":13069,"ĠFigs":13070,"Ġpancreatitis":13071,"Ġerythem":13072,"Ġmargins":13073,"Gu":13074,"omed":13075,"Ġns":13076,"Ġacyl":13077,"ĠPLA":13078,"plates":13079,"Ġimper":13080,"ĠHol":13081,"ĠLF":13082,"Ġundet":13083,"Ġexploratory":13084,"hips":13085,"CGA":13086,"Ġimplementing":13087,"ĠATCC":13088,"Ġsplen":13089,"ĠInternet":13090,"ĠGSK":13091,"roplasty":13092,"Ġ(âĪ¼":13093,"ĠTc":13094,"opsy":13095,"Ġelegans":13096,"Ġdissected":13097,"Ġveins":13098,"Ġguided":13099,"Ġvegetation":13100,"esticular":13101,"lipidemia":13102,"eclamp":13103,"average":13104,"fish":13105,"requ":13106,"Ġlowered":13107,"Ġmethylated":13108,"acks":13109,"elfare":13110,"Ġ160":13111,"Ġglyce":13112,"Ġrhin":13113,"ĠSIRT":13114,"Ġformalin":13115,"ĠLikewise":13116,"Ġviscosity":13117,"UG":13118,"atology":13119,"Ġration":13120,"Ġcontrad":13121,"Ġtransported":13122,"rick":13123,"Ġoperator":13124,"Ġdiameters":13125,"ijing":13126,"Ġanalgesic":13127,"UA":13128,"ĠNone":13129,"Ġtransgene":13130,"Ġtriang":13131,"Ġpatches":13132,"Ġangular":13133,"ĠPARP":13134,"Ġengaged":13135,"Ġglutamine":13136,"NCE":13137,"ĠKorean":13138,"ĠDifferent":13139,"Ġsporadic":13140,"tiles":13141,"Ġgate":13142,"Ġgame":13143,"ĠTra":13144,"ĠHEP":13145,"Ġlean":13146,"ĠGD":13147,"Ġmicrovascular":13148,"ortem":13149,"inki":13150,"Ġclassifier":13151,"osperm":13152,"itinib":13153,"processing":13154,"ĠCentre":13155,"Ġneighborhood":13156,"Ġlifespan":13157,"Ġcoch":13158,"Ġinappropriate":13159,"Ġrins":13160,"ĠMDS":13161,"Ġamph":13162,"Ġblots":13163,"plicity":13164,"Ġinitiating":13165,"enteric":13166,"Ġcaution":13167,"Ġalignments":13168,"Ġwounds":13169,"Ġimpedance":13170,"ANOVA":13171,"Ga":13172,"Ġ(*":13173,"cean":13174,"amen":13175,"Ġexem":13176,"ÂłmL":13177,"Ġimply":13178,"Ġfloor":13179,"ĠRef":13180,"Ġavoided":13181,"ĠTNFÎ±":13182,"Ġrecommendation":13183,"ĠDifferences":13184,"onazole":13185,"Ġinactivated":13186,"ĠCHO":13187,"ĠDie":13188,"ĠLo":13189,"orest":13190,"Ġlowering":13191,"146":13192,"ĠProt":13193,"Ġadhesive":13194,"Ġexercises":13195,"ultivariate":13196,"ĠAPC":13197,"abetes":13198,"009":13199,"âĢīng":13200,"Ġexcited":13201,"Ġrapamycin":13202,"Ġdysp":13203,"Ġperoxidation":13204,"Ġextinction":13205,"Ġpluripot":13206,")].":13207,"su":13208,"Ġinversion":13209,"arial":13210,"Ġejection":13211,"elle":13212,"urnal":13213,"âĢĳ":13214,"Ġperceptual":13215,"MPs":13216,"Ġreplace":13217,"traum":13218,"Ġtestis":13219,"Ġintermittent":13220,"esarean":13221,"Ġafore":13222,"Ġvibr":13223,"ocol":13224,"Ġleave":13225,"vie":13226,"Ġpointed":13227,"2007":13228,"Ġproteases":13229,"Ġstratification":13230,"+)-":13231,"enzyme":13232,"emed":13233,"ĠMolecular":13234,"Ġclinician":13235,"orbent":13236,"orthy":13237,"epithelial":13238,"None":13239,"Ġfill":13240,"ĠCre":13241,"opter":13242,"ĠIHC":13243,"Ġcompact":13244,"astric":13245,"ource":13246,"ographically":13247,"Ġpossibilities":13248,"Ġavoiding":13249,"Ġrobustness":13250,"Ġstriking":13251,"Ġreversal":13252,"ĠAKI":13253,"Ġanticipated":13254,"ĠNetwork":13255,"wid":13256,"ellect":13257,"ĠFlow":13258,"Ġconfined":13259,"Ġcapabilities":13260,"Ġcultivars":13261,"Ġcrops":13262,"Ġenlarged":13263,"press":13264,"Ġpod":13265,"Ġdashed":13266,"unn":13267,"ucl":13268,"Ġcoherence":13269,"aka":13270,"Ġstatement":13271,"ctomy":13272,"Ġspectrometer":13273,"Ġvulnerability":13274,"Ret":13275,"cing":13276,"nine":13277,"hetic":13278,"teral":13279,"Ġcomfort":13280,"ĠMut":13281,"Ġphon":13282,"Ġbiased":13283,"Ġextrap":13284,"Ġstructurally":13285,"Ġmultiplex":13286,"Ġhydrochlor":13287,"Ġstarvation":13288,"Dep":13289,"vestig":13290,"ĠDEN":13291,"ĠLDH":13292,"Ġsurvived":13293,"Ġdepleted":13294,"Ġfluoride":13295,"Ġâĸ¸":13296,"Hep":13297,"mC":13298,"ĠBu":13299,"ipital":13300,"ĠLN":13301,"ponectin":13302,"Ġpathologies":13303,"Ġsecurity":13304,"Ġintraperitoneal":13305,"Ġdividing":13306,"Ġaccompany":13307,"Ġdivergent":13308,"Ġaugmented":13309,"Ġanalgesia":13310,"Ġinsectic":13311,"Low":13312,"Ġpaid":13313,"Ġhole":13314,"Ġstran":13315,"ĠSym":13316,"iper":13317,"Ġcotton":13318,"Ġipsilateral":13319,"sample":13320,"Ġcranial":13321,"ensing":13322,"ordered":13323,"intensity":13324,"Ġproteasome":13325,"Ġsatisfied":13326,"Ġgradual":13327,"Ġcephal":13328,"Ġexceeded":13329,"Cd":13330,"acyl":13331,"ĠAut":13332,"dia":13333,"anda":13334,"Ġsupplied":13335,"Ġsolve":13336,"Ġsolvents":13337,"Ġattended":13338,"loop":13339,"arith":13340,"Ġease":13341,"uss":13342,"Ġvomiting":13343,"Ġchitosan":13344,"Ġ[(":13345,"ĠInt":13346,"Ġcomposites":13347,"romega":13348,"Ġinterviewed":13349,"Ġneuropathy":13350,"Ġduplicate":13351,"Ġoligonucleotides":13352,"Ġorbital":13353,"Ġchaper":13354,"Ġheated":13355,"Ġreceiver":13356,"126":13357,"117":13358,"Ġcharacters":13359,"elsinki":13360,"Ġtransiently":13361,"Ġanesthetized":13362,"Ġduplex":13363,"Ġoncogenic":13364,"Ġcompromised":13365,"aughter":13366,"Ġwebsite":13367,"EE":13368,"El":13369,"atins":13370,"itter":13371,"Ġment":13372,"ighed":13373,"ĠThermo":13374,"ylic":13375,"Ġraise":13376,"RTI":13377,"Ġirrig":13378,"Ġmelting":13379,"Ġacquire":13380,"Ġannotations":13381,"Ġcorticosteroids":13382,"NN":13383,"olol":13384,"olymer":13385,"Ġlot":13386,"Ġvibration":13387,"Ġdioxide":13388,"Ġsparse":13389,"Ġteams":13390,"Ġvasodil":13391,"mac":13392,"ima":13393,"Ġgains":13394,"oting":13395,"MSC":13396,"beit":13397,"Ġureth":13398,"avid":13399,"Ġsarcoma":13400,"Ġdairy":13401,"icago":13402,"ĠFDA":13403,"Ġamplic":13404,"Ġlivers":13405,"ĠKD":13406,"Ġ1987":13407,"Ġmenstr":13408,"ĠNorthern":13409,"targeted":13410,"Ġdispersal":13411,"SOD":13412,"electro":13413,"Ġlin":13414,"Ġlon":13415,"ĠPf":13416,"ĠMAT":13417,"Ġsubcl":13418,"Ġphone":13419,"Ġcreation":13420,"Ġexactly":13421,"Ġcompensation":13422,"ĠNADPH":13423,"ozoa":13424,"Ġammonia":13425,"Ġoligonucleotide":13426,"Ġpep":13427,"ĠCro":13428,"ĠCoun":13429,"ĠSouthern":13430,"ĠHelsinki":13431,"ĠGa":13432,"Ġcorn":13433,"Ġcausative":13434,"atinum":13435,"ĠALS":13436,"Ġerythrocytes":13437,"Ġreinforce":13438,"Ġimmunoblotting":13439,"Ġaforementioned":13440,"ĠCAT":13441,"ĠPs":13442,"Ġ450":13443,"Ġnotice":13444,"Ġmonkeys":13445,"Ġskull":13446,"Ġnanom":13447,"ĠALT":13448,"Ġodor":13449,"Ġmyocardium":13450,"ĠTGFÎ²":13451,"Ġrender":13452,"ĠMeanwhile":13453,"ATPase":13454,"Ġparaformaldehyde":13455,"Ġprescribing":13456,"zo":13457,"ĠPac":13458,"ĠRAS":13459,"Ġsupplements":13460,"ycardia":13461,"Ġdetermines":13462,"CAR":13463,"ASH":13464,"Conclusion":13465,"Ġresponders":13466,"depth":13467,"Ġroughly":13468,"Cyt":13469,"kappa":13470,"pf":13471,"together":13472,"Ġole":13473,"ĠBW":13474,"ĠLM":13475,"Ġspeculate":13476,"identified":13477,"trum":13478,"system":13479,"Ġherein":13480,"Ġprostagland":13481,"ĠBLAST":13482,"DB":13483,"GH":13484,"ĠSec":13485,"Ġpretreated":13486,"perg":13487,"Ġspray":13488,"%);":13489,"ĠQuality":13490,"Control":13491,"Ġnorth":13492,"Ġsorting":13493,"Ġsacrificed":13494,"Ġfreedom":13495,"hu":13496,"post":13497,"âĤ":13498,"enem":13499,"Ġsay":13500,"alanine":13501,"ĠFITC":13502,"ĠNMDA":13503,"ethanol":13504,"Ġlinking":13505,"ĠSchool":13506,"Ġcompetence":13507,"Ġvegetables":13508,"lass":13509,"Ġselen":13510,"ĠChen":13511,"ĠPW":13512,"Ġassisted":13513,"Ġapex":13514,"Ġexcised":13515,"Ġintegrate":13516,"Ġoriginating":13517,"Ġautism":13518,"Ġhorses":13519,"Ġpsoriasis":13520,"atural":13521,"Ġhomes":13522,"ĠAZ":13523,"ĠGolgi":13524,"Ġnonspecific":13525,"Ġthereafter":13526,"Ġradiographs":13527,"Ġtopology":13528,"Ġcardiomyocytes":13529,"Ġstretch":13530,"pair":13531,"Ġferr":13532,"Ġattain":13533,"ĠHi":13534,"ipal":13535,"Ġ108":13536,"clusions":13537,"ĠReal":13538,"obacterial":13539,"-)":13540,"ilis":13541,"ductor":13542,"ĠNB":13543,"NAc":13544,"allis":13545,"Ġcaries":13546,"keep":13547,"Ġpromise":13548,"Ġentities":13549,"Ġbelongs":13550,"Ġendometri":13551,"aran":13552,"aci":13553,"atid":13554,"Ġalumin":13555,"adm":13556,"Ġnoninvasive":13557,"ercury":13558,"ĠMRSA":13559,"Ġinsufficiency":13560,"Ġmismatch":13561,"800":13562,"LPS":13563,"Ġsensitization":13564,"Ġcontractile":13565,"prisingly":13566,"ĠNIH":13567,"Ġfertilization":13568,"IKV":13569,"translational":13570,"LM":13571,"ster":13572,"Ġtheories":13573,"Ġdermal":13574,"icidal":13575,"Ġ107":13576,"Ġorigins":13577,"ĠOnt":13578,"Ġbroth":13579,"Ġturned":13580,"Ġcultivation":13581,"Ġobviously":13582,"Ġganglia":13583,"Ġascertain":13584,"Ele":13585,"can":13586,"Îµ":13587,"Ġ:":13588,"ĠPsych":13589,"Ġsubtle":13590,"Ġsupportive":13591,"Ġsmart":13592,"STUDY":13593,"Ġheterod":13594,"Ġaltering":13595,"Ġmelatonin":13596,"iliac":13597,"ĠÏĢ":13598,"Ġsplenic":13599,"ĠPrism":13600,"ĠSerum":13601,"Ġsynovial":13602,"Ġinspection":13603,"Ġss":13604,"Ġbrought":13605,"idden":13606,"Ġresidence":13607,"ichi":13608,"Ġecho":13609,"IgG":13610,"Ġgingival":13611,"itzerland":13612,"arest":13613,"Ġparo":13614,"ĠeIF":13615,"osum":13616,"Ġheme":13617,"Ġintellig":13618,"forms":13619,"Ġsurrogate":13620,"ĠUpon":13621,"rospinal":13622,"pa":13623,"Ġsimulate":13624,"exper":13625,"condition":13626,"Ġinflux":13627,"ttes":13628,"analyses":13629,"Ġtailored":13630,"Ġbiofilms":13631,"ĠFourier":13632,"KD":13633,"fit":13634,"Ġros":13635,"ushing":13636,"atio":13637,"ĠFACS":13638,"Ġbiases":13639,"Ġendocytosis":13640,"avor":13641,"Ġlinker":13642,"Ġadoption":13643,"Ġbreaks":13644,"ĠIsland":13645,"Ġjuvenile":13646,"Ġperinatal":13647,"Ni":13648,"ball":13649,"Ġcup":13650,"osition":13651,"unctiv":13652,"Ġlabels":13653,"Ġhydroxy":13654,"Ġsexes":13655,"Ġvesti":13656,"Ġabsorbed":13657,"Ġvasculature":13658,"ĠCandida":13659,"yan":13660,"Ġ000":13661,"Ġtiter":13662,"Ġintim":13663,"ĠSAM":13664,"ĠPet":13665,"Ġantipsych":13666,"Ġimpul":13667,"Ġsteel":13668,"Ġsummarizes":13669,"Ġsorted":13670,"ocompatibility":13671,"XA":13672,"hou":13673,"essive":13674,"ĠABA":13675,"threat":13676,"Ġdescending":13677,"ruent":13678,"Ġplateau":13679,"Ġglobally":13680,"Ġperiphery":13681,"olecules":13682,"igenous":13683,"Ġoriented":13684,"Ġanalogues":13685,"Ġemphasize":13686,"ĠRelative":13687,"ĠWilcoxon":13688,"oarthritis":13689,"bis":13690,"Ġling":13691,"ĠDF":13692,"structured":13693,"Ġsilico":13694,"ĠCommun":13695,"ĠDevelopment":13696,"Ġspreading":13697,"Ġrodent":13698,"Ġasymmetry":13699,"Ġcampaign":13700,"PATIENTS":13701,"Between":13702,"Schem":13703,"SETTING":13704,"ractive":13705,"icol":13706,"stere":13707,"ĠDU":13708,"Ġmodulus":13709,"Ġcalcification":13710,"ĠCDC":13711,"intervention":13712,"Ġmyelin":13713,"Ġpellets":13714,"Ġconformations":13715,"Ġfollicles":13716,"Ġelectrolyte":13717,"Primary":13718,"istics":13719,"arant":13720,"amel":13721,"ĠAx":13722,"Ġincen":13723,"apine":13724,"Ġconfer":13725,"Ġreviewers":13726,"Ġflask":13727,"holders":13728,"Ġneurologic":13729,"Ġmessages":13730,"Î»":13731,"uric":13732,"Ġgyn":13733,"Ġstably":13734,"Ġprotr":13735,"Ġresusc":13736,"ĠFEV":13737,"ĠRPE":13738,"PDF":13739,"Ġeasier":13740,"Compar":13741,"Ġtomato":13742,"Ġdropped":13743,"Ġboxes":13744,"Ġjournal":13745,"Ġvaccinated":13746,"ï¼Į":13747,"Ġwk":13748,"atellite":13749,"Ġbot":13750,"ĠIOP":13751,"Ġspite":13752,"Ġarc":13753,"fulness":13754,"Ġpictures":13755,"Ġturb":13756,"Ġtwenty":13757,"ĠNrf":13758,"Ġpulp":13759,"Ġventil":13760,"Ġoverexpressing":13761,"Ġirreversible":13762,"Ġtongue":13763,"Ġsial":13764,"odec":13765,"ĠNJ":13766,"Âłp":13767,"Âłml":13768,"Ġunw":13769,"Ġdemographics":13770,"SAID":13771,"157":13772,"Ġfistula":13773,"bit":13774,"dm":13775,"ÂŃ":13776,"Ġoocyte":13777,"ersion":13778,"arity":13779,"dii":13780,"ĠHel":13781,"ĠFile":13782,"Ġkits":13783,"Ġ102":13784,"isson":13785,"Ġexplaining":13786,"icked":13787,"Ġsuccessive":13788,"Ġinternalization":13789,"ĠPTH":13790,"ĠAAV":13791,"Ġbromide":13792,"yrin":13793,"Ġdeemed":13794,"Ġneoplastic":13795,"oplasia":13796,"Ġionization":13797,"Ġanswers":13798,"ĠPrimary":13799,"ĠGWAS":13800,"Ġmoisture":13801,"Ġcock":13802,"Ġresolve":13803,"âĢīHz":13804,"omegal":13805,"Ġ103":13806,"Ġpores":13807,"Ġproteomic":13808,"Ġdeleted":13809,"ĠAlternatively":13810,"hoc":13811,"alt":13812,"Ġpull":13813,"Ġnt":13814,"Ġresponsibility":13815,"ROC":13816,"Ġtopics":13817,"ĠConf":13818,"Ġconvergence":13819,"Ġscientists":13820,"ĠAppendix":13821,"Ġcomprise":13822,"Ġpolarity":13823,"ĠHEPES":13824,"Hyp":13825,"tests":13826,"Ġapt":13827,"Ġplaces":13828,"ĠLI":13829,"âĢĻ-":13830,"Ġ1985":13831,"Ġdiagnose":13832,"Ġglycogen":13833,"Ġinfarct":13834,"Ġplatforms":13835,"Ġfabrication":13836,"ummary":13837,"Ġantifungal":13838,"Ten":13839,"Ġtaste":13840,"reon":13841,"Ġphe":13842,"ĠHyp":13843,"Ġclients":13844,"early":13845,"Ġexplains":13846,"Ġcharacterised":13847,"Ġguinea":13848,"Ġlysosomal":13849,"Ġoverestim":13850,"Ġpolymorphic":13851,"Ġexplicitly":13852,"hypertensive":13853,"Ġdedic":13854,"urate":13855,"ĠTwenty":13856,"uts":13857,"Ġcoil":13858,"Ġtransduced":13859,"conf":13860,"ĠScore":13861,"Ġcheckpoint":13862,"Ġapplicability":13863,"Ġsegregation":13864,"Ġphantom":13865,"vest":13866,"inous":13867,"orf":13868,"Ġell":13869,"portion":13870,"ostatin":13871,"ander":13872,"Ġspaces":13873,"Ġvisually":13874,"Ġcurc":13875,"Î¼g":13876,"Ġmacrom":13877,"Ġphosphorus":13878,"Ġconstrained":13879,"Ġimpossible":13880,"Det":13881,"Pe":13882,"iosis":13883,"Ġarous":13884,"onc":13885,"atation":13886,"aning":13887,"third":13888,"lective":13889,"Ġregulations":13890,"Ġmanaging":13891,"Ġcombine":13892,"coupled":13893,"metic":13894,"Ġurgent":13895,"book":13896,"Ġhypothalamic":13897,"Ġteachers":13898,"Ġacetic":13899,"BF":13900,"sim":13901,"Ġ{":13902,"room":13903,"ĠTD":13904,"ĠCap":13905,"Ġdisulfide":13906,"ĠDG":13907,"ĠDESIGN":13908,"tivation":13909,"Ġrefined":13910,"Ġelabor":13911,"Ġdesigning":13912,"Ġestradiol":13913,"Ġtea":13914,"Ġillumination":13915,"Ġdysplasia":13916,"Ġloads":13917,"ĠLevel":13918,"ĠSupporting":13919,"Ġtriglyceride":13920,"hepatic":13921,"ellectual":13922,"ÏĢ":13923,"Ġwing":13924,"ania":13925,"Ġreaches":13926,"Ġautonomic":13927,"Ġchemotherapeutic":13928,"Ġlooking":13929,"arbonate":13930,"Ġ488":13931,"ĠSwitzerland":13932,"chyma":13933,
[...]
